{"<s>":0,"<pad>":1,"</s>":2,"<unk>":3,"<mask>":4,"!":5,"\"":6,"#":7,"$":8,"%":9,"&":10,"'":11,"(":12,")":13,"*":14,"+":15,",":16,"-":17,".":18,"/":19,"0":20,"1":21,"2":22,"3":23,"4":24,"5":25,"6":26,"7":27,"8":28,"9":29,":":30,";":31,"<":32,"=":33,">":34,"?":35,"@":36,"A":37,"B":38,"C":39,"D":40,"E":41,"F":42,"G":43,"H":44,"I":45,"J":46,"K":47,"L":48,"M":49,"N":50,"O":51,"P":52,"Q":53,"R":54,"S":55,"T":56,"U":57,"V":58,"W":59,"X":60,"Y":61,"Z":62,"[":63,"\\":64,"]":65,"^":66,"_":67,"`":68,"a":69,"b":70,"c":71,"d":72,"e":73,"f":74,"g":75,"h":76,"i":77,"j":78,"k":79,"l":80,"m":81,"n":82,"o":83,"p":84,"q":85,"r":86,"s":87,"t":88,"u":89,"v":90,"w":91,"x":92,"y":93,"z":94,"{":95,"|":96,"}":97,"~":98,"¡":99,"¢":100,"£":101,"¤":102,"¥":103,"¦":104,"§":105,"¨":106,"©":107,"ª":108,"«":109,"¬":110,"®":111,"¯":112,"°":113,"±":114,"²":115,"³":116,"´":117,"µ":118,"¶":119,"·":120,"¸":121,"¹":122,"º":123,"»":124,"¼":125,"½":126,"¾":127,"¿":128,"À":129,"Á":130,"Â":131,"Ã":132,"Ä":133,"Å":134,"Æ":135,"Ç":136,"È":137,"É":138,"Ê":139,"Ë":140,"Ì":141,"Í":142,"Î":143,"Ï":144,"Ð":145,"Ñ":146,"Ò":147,"Ó":148,"Ô":149,"Õ":150,"Ö":151,"×":152,"Ø":153,"Ù":154,"Ú":155,"Û":156,"Ü":157,"Ý":158,"Þ":159,"ß":160,"à":161,"á":162,"â":163,"ã":164,"ä":165,"å":166,"æ":167,"ç":168,"è":169,"é":170,"ê":171,"ë":172,"ì":173,"í":174,"î":175,"ï":176,"ð":177,"ñ":178,"ò":179,"ó":180,"ô":181,"õ":182,"ö":183,"÷":184,"ø":185,"ù":186,"ú":187,"û":188,"ü":189,"ý":190,"þ":191,"ÿ":192,"Ā":193,"ā":194,"Ă":195,"ă":196,"Ą":197,"ą":198,"Ć":199,"ć":200,"Ĉ":201,"ĉ":202,"Ċ":203,"ċ":204,"Č":205,"č":206,"Ď":207,"ď":208,"Đ":209,"đ":210,"Ē":211,"ē":212,"Ĕ":213,"ĕ":214,"Ė":215,"ė":216,"Ę":217,"ę":218,"Ě":219,"ě":220,"Ĝ":221,"ĝ":222,"Ğ":223,"ğ":224,"Ġ":225,"ġ":226,"Ģ":227,"ģ":228,"Ĥ":229,"ĥ":230,"Ħ":231,"ħ":232,"Ĩ":233,"ĩ":234,"Ī":235,"ī":236,"Ĭ":237,"ĭ":238,"Į":239,"į":240,"İ":241,"ı":242,"Ĳ":243,"ĳ":244,"Ĵ":245,"ĵ":246,"Ķ":247,"ķ":248,"ĸ":249,"Ĺ":250,"ĺ":251,"Ļ":252,"ļ":253,"Ľ":254,"ľ":255,"Ŀ":256,"ŀ":257,"Ł":258,"ł":259,"Ń":260,"Ġt":261,"he":262,"Ġa":263,"in":264,"Ġthe":265,"er":266,"on":267,"re":268,"Ġo":269,"at":270,"en":271,"an":272,"Ġs":273,"ed":274,"Ġc":275,"it":276,"Ġw":277,"es":278,"Ġof":279,"or":280,"al":281,"is":282,"Ġan":283,"Ġin":284,"ar":285,"Ġp":286,"Ġb":287,"Ġf":288,"ic":289,"Ġand":290,"ing":291,"Ġm":292,"ion":293,"as":294,"ou":295,"Ġd":296,"Ġto":297,"om":298,"le":299,"ent":300,"Ġh":301,"Ġre":302,"Ġl":303,"ro":304,"st":305,"ly":306,"Ġe":307,"ĠT":308,"Ġn":309,"ĠA":310,"il":311,"ct":312,"Ġth":313,"ĠS":314,"ol":315,"ĠC":316,"ve":317,"ation":318,"ur":319,"ch":320,"Ġbe":321,"ad":322,"Ġ1":323,"am":324,"us":325,"ce":326,"ĠI":327,"id":328,"Ġg":329,"ver":330,"ig":331,"im":332,"Ġas":333,"th":334,"Ġis":335,"Ġfor":336,"ĠM":337,"un":338,"ir":339,"ow":340,"ter":341,"ĠB":342,"Ġon":343,"ĠThe":344,"el":345,"ut":346,"ul":347,"ot":348,"Ġ(":349,"Ġwas":350,"et":351,"ĠP":352,"Ġst":353,"ith":354,"Ġcon":355,"her":356,"Ġwith":357,"ra":358,"Ġwh":359,"ist":360,"Ġby":361,"Ġal":362,"est":363,"op":364,"Ġthat":365,"ay":366,"em":367,"ĠH":368,"and":369,"ĠE":370,"ity":371,"os":372,"ĠG":373,"ri":374,"ĠR":375,"Ġde":376,"um":377,"'s":378,"oun":379,"rom":380,"Ġ2":381,"ers":382,"ate":383,"od":384,"Ġare":385,"ĠF":386,"00":387,"ĠN":388,"ĠD":389,"Ġor":390,"ies":391,"ge":392,"Ġit":393,"Ġpro":394,"ĠW":395,"ain":396,"Ġsu":397,"ĠL":398,"ac":399,"Ġcom":400,"if":401,"Ġ\"":402,"Ġfrom":403,"res":404,"Ġat":405,"ian":406,"ud":407,"Ġex":408,"pe":409,"ab":410,"Ġ19":411,"ment":412,"ĠIn":413,"Ġv":414,"ial":415,"se":416,"Ġse":417,"ich":418,"ort":419,"oc":420,"Ġr":421,"ant":422,"ld":423,"ive":424,"iv":425,"ĠU":426,"ĠJ":427,"Ġmo":428,"qu":429,"ia":430,"art":431,"ere":432,"ew":433,"ated":434,"ill":435,"Ġun":436,"ical":437,"Ġy":438,"igh":439,"ess":440,"Ġwere":441,"ĠO":442,"Ġhe":443,"ap":444,"Ġwhich":445,"all":446,"end":447,"gh":448,"our":449,"ke":450,"ther":451,"pp":452,"ave":453,"cl":454,"Ġch":455,"ber":456,"ast":457,"ard":458,"red":459,"ary":460,"og":461,"Ġnot":462,"ag":463,"Ġus":464,"pt":465,"ous":466,"ong":467,"ĠCh":468,"ome":469,"ough":470,"ect":471,"Ġar":472,"ish":473,"ions":474,"so":475,"per":476,"ear":477,"ell":478,"Ġle":479,"ound":480,"du":481,"Ġhave":482,"ans":483,"Ġk":484,"ame":485,"ure":486,"ip":487,"Ġcont":488,"ĠK":489,"ub":490,"Ġpl":491,"av":492,"rit":493,"Ġcomp":494,"ult":495,"Ġwor":496,"ĠSt":497,"der":498,"ine":499,"cc":500,"âĢ":501,"Ġhis":502,"ight":503,"ations":504,"Ġits":505,"iz":506,"ass":507,"mer":508,"Ġhas":509,"ue":510,"Ġint":511,"ide":512,"Ġalso":513,"ence":514,"ry":515,"Ġsh":516,"),":517,"Ġad":518,"ang":519,"ally":520,"Ġtheir":521,"ak":522,"Ġres":523,"Ġper":524,"Ġhad":525,"ff":526,"ĠUn":527,"ren":528,"any":529,"over":530,"Ġcl":531,"ign":532,"ib":533,"ates":534,"Ġtr":535,"age":536,"act":537,"ount":538,"out":539,"Ġ20":540,"The":541,"Ġall":542,"Ġpart":543,"Ġbut":544,"clud":545,"ore":546,"Ġother":547,"ree":548,"tern":549,"ition":550,"ance":551,"Ġab":552,"ĠV":553,"ire":554,"Ġen":555,"vel":556,"ust":557,"Ġwhe":558,"Ġim":559,"ord":560,"own":561,"Ġcent":562,"irst":563,"up":564,"ater":565,"Ġ200":566,"pl":567,"ĠTh":568,"ric":569,"ost":570,"ime":571,"Ġinclud":572,"ie":573,"ould":574,"con":575,"Ġbec":576,"ction":577,"Ġdis":578,"ru":579,"ks":580,"Ġam":581,"Ġ18":582,"fer":583,"erm":584,"uring":585,"port":586,"Ġfirst":587,"Ġthis":588,"Ġne":589,"Ġone":590,"vers":591,").":592,"hed":593,"Ġsuch":594,"land":595,"ile":596,"lic":597,"ited":598,"Ġbeen":599,"Ġgr":600,"ice":601,"ep":602,"Ġmost":603,"ces":604,"Ġme":605,"ced":606,"Ġte":607,"orm":608,"ational":609,"fter":610,"ens":611,"Ġ201":612,"Ġyear":613,"Ġag":614,"Ġcomm":615,"ory":616,"Ġrel":617,"ach":618,"Ġdo":619,"ents":620,"wo":621,"Ġmore":622,"able":623,"ism":624,"ors":625,"Ġwho":626,"Ġover":627,"ĠIt":628,"aw":629,"ack":630,"reat":631,"Ġrec":632,"Ġbo":633,"we":634,"âĢĵ":635,"Ġj":636,"ace":637,"Ġi":638,"lect":639,"Ġcan":640,"Ġev":641,"ite":642,"Ġinto":643,"Ġform":644,"oll":645,"Ġpre":646,"Ġyou":647,"Ġlar":648,"Ġspe":649,"ade":650,"ose":651,"erv":652,"Ġcons":653,"ĠY":654,"Ġpop":655,"ress":656,"ual":657,"Ġcity":658,"Ġsy":659,"ious":660,"Ġreg":661,"ĠAl":662,"Ġsp":663,"ied":664,"Ġ3":665,"Ġthey":666,"ts":667,"Ġsc":668,"gan":669,"ike":670,"ury":671,"Ġthan":672,"ities":673,"ood":674,"Ġnew":675,"Ġpe":676,"Ġro":677,"ph":678,"ular":679,"rough":680,"Ġma":681,"Ġbet":682,"olog":683,"ok":684,"Ġgen":685,"overn":686,"amp":687,"Ġdes":688,"ower":689,"te":690,"ase":691,"ĠAr":692,"ased":693,"ild":694,"Ġtwo":695,"Ġear":696,"Ġsome":697,"Ġatt":698,"Ġkn":699,"ween":700,"meric":701,"Ġunder":702,"ific":703,"ĠAn":704,"Ġcol":705,"Ġused":706,"Ġoff":707,"Ġtime":708,"ted":709,"ark":710,"ten":711,"ons":712,"aus":713,"cial":714,"Ġapp":715,"Ġra":716,"les":717,"ative":718,"Ġout":719,"ings":720,"Ġinc":721,"Ġbetween":722,"ivers":723,"Ġinf":724,"ool":725,"In":726,"Ġcount":727,"ĠSe":728,"ublic":729,"Ġafter":730,"Ġem":731,"Ġmany":732,"one":733,"wn":734,"velop":735,"ĠAs":736,"ath":737,"Ġpol":738,"ĠAmeric":739,"ution":740,"000":741,"ics":742,"uro":743,"rib":744,"stem":745,"Ġsub":746,"ĠEn":747,"are":748,"old":749,"ved":750,"eral":751,"Ġonly":752,"ident":753,"Ġind":754,"Ġup":755,"ind":756,"ines":757,"ince":758,"Ġduring":759,"Ġnum":760,"Ġph":761,"ĠUnited":762,"ĠThis":763,"Ġso":764,"Ġgovern":765,"Ġprodu":766,"ond":767,"uc":768,"Ġwould":769,"oup":770,"oy":771,"Ġdevelop":772,"Ġcentury":773,"oin":774,"Ġlike":775,"Ġno":776,"iet":777,"Ġpr":778,"ail":779,"ever":780,"ople":781,"outh":782,"Ġstate":783,"Ġthrough":784,"Ġwhen":785,"iss":786,"ĠEuro":787,"Ġthere":788,"ĠNew":789,"ral":790,"orth":791,"Ġinv":792,"ne":793,"Ġsystem":794,"ists":795,"Ġacc":796,"Ġmus":797,"Ġthem":798,"ĠBrit":799,"illion":800,"ah":801,"ran":802,"Ġass":803,"ĠRe":804,"Ġac":805,"ĠCom":806,"Ġher":807,"Ġwork":808,"Ġabout":809,"Ġ4":810,"Ġact":811,"ict":812,"als":813,"Ġinter":814,"Ġstud":815,"Ġwe":816,"Ġdef":817,"ĠEurope":818,"Ġtrans":819,"Ġqu":820,"Ġfound":821,"jor":822,"ĠHe":823,"Ġ5":824,"ily":825,"ern":826,"Ġloc":827,"Ġworld":828,"Ġrem":829,"ug":830,"Ġdif":831,"ft":832,"form":833,"ished":834,"ars":835,"Ġyears":836,"Ġmay":837,"ove":838,"the":839,"Ġpopul":840,"ating":841,"chool":842,"very":843,"Ġest":844,"Ġinst":845,"Ġpres":846,"uss":847,"ters":848,"Ġmod":849,"gr":850,"ov":851,"Ġplay":852,"Ġknown":853,"Ġsupp":854,"gest":855,"Ġuse":856,"ural":857,"ĠInd":858,"cept":859,"owever":860,"Ġwell":861,"ron":862,"ually":863,"Ġfl":864,"Ġcap":865,"ments":866,"tain":867,"Ġmajor":868,"alled":869,"Ġprov":870,"Ġtra":871,"\".":872,"ob":873,"ject":874,"Ġbu":875,"Ġexp":876,"Ġincluding":877,"Ġpeople":878,"Ġbecame":879,"hip":880,"ized":881,"arch":882,"Ġthese":883,"ĠGerm":884,"ures":885,"ĠStates":886,"ward":887,"ered":888,"led":889,"io":890,"Ġgroup":891,"Ġend":892,"Ġwhere":893,"tle":894,"urn":895,"ollow":896,"Ġhigh":897,"ause":898,"ĠIs":899,"ĠEng":900,"oh":901,"ale":902,"Ġdec":903,"Ġbl":904,"ĠCon":905,"Ġwhile":906,"Ã©":907,"oman":908,"ĠLe":909,"angu":910,"ically":911,"Ġnumber":912,"Ġvar":913,"ient":914,"Ġfe":915,"gy":916,"ix":917,"cess":918,"ians":919,"Ġgovernment":920,"ants":921,"Ġserv":922,"hes":923,"Ġman":924,"ays":925,"Ġagain":926,"lish":927,"ork":928,"uch":929,"inal":930,"Ġ199":931,"\",":932,"iod":933,"ina":934,"rol":935,"Ġboth":936,"iversity":937,"Ġmon":938,"ise":939,".\"":940,"Ġchar":941,"Ġdist":942,"ys":943,"Ġmain":944,"Ġearly":945,"oss":946,"Ġsign":947,"Ġlarge":948,"Ġany":949,"Ġeff":950,"cond":951,"cent":952,"Ġmade":953,"Ġmem":954,"Ġcontin":955,"Ġelect":956,"Ġmillion":957,"Ġmusic":958,"Ġhist":959,"Ġlangu":960,"ĠDe":961,"ning":962,"ton":963,"Ġdiffer":964,"Ġco":965,"row":966,"Ġext":967,"Ġimp":968,"ract":969,"Ġset":970,"Ġ6":971,"li":972,"Ġpers":973,"Ġent":974,"ĠWh":975,"Ġcult":976,"Ġpopulation":977,"Ġcalled":978,"Ġpower":979,"ĠQ":980,"ĠEm":981,"Ġlater":982,"Ġspec":983,"Ġsoc":984,"Ġwar":985,"Ġthree":986,"ex":987,"elf":988,"fore":989,"Ġob":990,"imes":991,"Ġdisc":992,"ĠBe":993,"ros":994,"cy":995,"other":996,"Ġterm":997,"Ġfollow":998,"Ġmil":999,"Ġbeing":1000,"Ġ17":1001,"Ġperiod":1002,"its":1003,"Ġart":1004,"Ġsur":1005,"hen":1006,"Ġrep":1007,"Ġoffic":1008,"ven":1009,"Ġincre":1010,"Ġlaw":1011,"ĠGree":1012,"ason":1013,"ible":1014,"ting":1015,"Ġsever":1016,"Ġtrad":1017,"Ġadd":1018,"..":1019,"Ġschool":1020,"lished":1021,"ather":1022,"Ġoften":1023,"Ġconst":1024,"ĠWar":1025,"ĠBritish":1026,"urch":1027,"Ġlead":1028,"Ġ7":1029,"rop":1030,"19":1031,"Ġpublic":1032,"Ġsm":1033,"ird":1034,"ĠAmerican":1035,"uman":1036,"Ġmin":1037,"ology":1038,"though":1039,"Ġair":1040,"til":1041,"bers":1042,"ature":1043,"Ġcar":1044,"ĠSp":1045,"Ġfam":1046,"az":1047,"lu":1048,"ins":1049,"ages":1050,"ision":1051,"rench":1052,"my":1053,"ital":1054,"iel":1055,"Ġresult":1056,"ake":1057,"ium":1058,"Ġorig":1059,"und":1060,"Ġbel":1061,"Ġocc":1062,"ick":1063,"ility":1064,"yp":1065,"Ġpolit":1066,"pect":1067,"ck":1068,"Ġrecord":1069,"Ġfil":1070,"Ġpartic":1071,"Ġdep":1072,"Ġneed":1073,"Ġorgan":1074,"ouse":1075,"Ġestab":1076,"Ġarea":1077,"Ġmed":1078,"ues":1079,"ived":1080,"ful":1081,"min":1082,"Ġlong":1083,"Ġwhat":1084,"rist":1085,"âĢĶ":1086,"conom":1087,"ife":1088,"ĠFor":1089,"man":1090,"Ġ8":1091,"ames":1092,"Ġown":1093,"Ġthen":1094,"ĠZ":1095,"Ġsecond":1096,"Ġsince":1097,"Ġconsid":1098,"ĠFrench":1099,"Ġsim":1100,"rent":1101,"Ġwill":1102,"Ġagainst":1103,"ĠAf":1104,"Ġele":1105,"acter":1106,"Ġcre":1107,"ĠOn":1108,"Ġremain":1109,"ries":1110,"ohn":1111,"ued":1112,"Ġed":1113,"Ġmy":1114,"Ġmet":1115,"Ġap":1116,"ared":1117,"Ġcountry":1118,"Ġ198":1119,"riv":1120,"Ġclass":1121,"Ġseveral":1122,"Ġcontrol":1123,"aking":1124,"omin":1125,"ty":1126,"pire":1127,"ock":1128,"chn":1129,"Ġhim":1130,"Ġcommon":1131,"Ġret":1132,"Ġoper":1133,"Ġland":1134,"ĠNorth":1135,"ided":1136,"ange":1137,"Ġ15":1138,"Ġinclude":1139,"ised":1140,"air":1141,"Ġbegan":1142,"irect":1143,"Ġcould":1144,"ĠPr":1145,"estern":1146,"Ġuntil":1147,"ional":1148,"ĠUS":1149,"ĠJohn":1150,"Ġimport":1151,"Ġsmall":1152,"Ġ197":1153,"Ġvi":1154,"Ġ10":1155,"orld":1156,"ross":1157,"por":1158,"ccess":1159,"iver":1160,"Ġann":1161,"vent":1162,"itary":1163,"Ġwrit":1164,"olution":1165,"ĠComm":1166,"to":1167,"osed":1168,"Ġfour":1169,"ik":1170,"Ġinflu":1171,"ired":1172,"ank":1173,"Ġsame":1174,"ruct":1175,"Ġsupport":1176,"Ġ16":1177,"Ġeconom":1178,"Ġeach":1179,"Ġlargest":1180,"Ġleg":1181,"Ġlit":1182,"ann":1183,"au":1184,"ives":1185,"ternational":1186,"Ġcommun":1187,"Ġdifferent":1188,"ĠSouth":1189,"Ġshe":1190,"Ġrelig":1191,"ĠChrist":1192,"Ġperson":1193,"ĠHowever":1194,"Ġbro":1195,"Ġ9":1196,"Ġsing":1197,"mber":1198,"ices":1199,"ĠWest":1200,"Ġcomple":1201,"ĠWorld":1202,"Ġ12":1203,"Ġrele":1204,"ording":1205,"ĠAfric":1206,"Ġthose":1207,"Ġref":1208,"ified":1209,"Ġcor":1210,"ash":1211,"way":1212,"ble":1213,"ĠAt":1214,"ĠMus":1215,"Ġbecause":1216,"ĠGerman":1217,"Ġaround":1218,"ience":1219,"Ġstr":1220,"Ġdid":1221,"Ġmark":1222,"Ġamong":1223,"Ġop":1224,"Ġname":1225,"ield":1226,"Ġcur":1227,"Ġsuccess":1228,"ec":1229,"yn":1230,"Ġsl":1231,"ier":1232,"Ġmuch":1233,"Ġfin":1234,"ink":1235,"ĠPro":1236,"ged":1237,"Ġallow":1238,"Ġwithin":1239,"itation":1240,"Ġpolitical":1241,"ms":1242,"Ġmat":1243,"Ġbuild":1244,"Ġdesign":1245,"ĠKing":1246,"Ġgener":1247,"Ġhig":1248,"Ġbefore":1249,"Ġgreat":1250,"ĠPar":1251,"ĠCity":1252,"aid":1253,"imate":1254,"Ġprot":1255,"Ġgo":1256,"uth":1257,"Ġled":1258,"Ġthough":1259,"ement":1260,"Ġ196":1261,"Ġlanguage":1262,"na":1263,"Ġofficial":1264,"ined":1265,"ample":1266,"Ġrequ":1267,"ger":1268,"inc":1269,"atic":1270,"Ġser":1271,"ene":1272,"Ġnear":1273,"epend":1274,"Ġmodern":1275,"ĠSh":1276,"Ġ194":1277,"ĠRoman":1278,"ides":1279,"ĠCol":1280,"ĠRuss":1281,"Ġnon":1282,"ĠEnglish":1283,"af":1284,"ĠEuropean":1285,"dom":1286,"Ġold":1287,"inese":1288,"ences":1289,"ague":1290,"day":1291,"get":1292,"une":1293,"Ġmilitary":1294,"Ġstand":1295,"apan":1296,"ĠPh":1297,"me":1298,"Ġdem":1299,"ration":1300,"ll":1301,"ights":1302,"Ġexample":1303,"Ġprom":1304,"oci":1305,"Ġnow":1306,"orn":1307,"ĠÂ":1308,"itions":1309,"ization":1310,"ris":1311,"ams":1312,"Ġconf":1313,"ute":1314,"Ġdirect":1315,"Ġeven":1316,"Ġhome":1317,"ges":1318,"ently":1319,"ĠCar":1320,"alth":1321,"ĠUniversity":1322,"ĠOr":1323,"Ġshow":1324,"Ġpass":1325,"ĠAust":1326,"ax":1327,"gin":1328,"ĠFr":1329,"ret":1330,"ai":1331,"50":1332,"ĠCent":1333,"Ġeffect":1334,"Ġchild":1335,"Ġtradition":1336,"Ġneeded":1337,"Ġdesc":1338,"hest":1339,"els":1340,"Ġhuman":1341,"Ġpar":1342,"ended":1343,"Ġnational":1344,"rodu":1345,"read":1346,"Ġback":1347,"Ġrest":1348,"ĠSc":1349,"ring":1350,"Ġvery":1351,"iving":1352,"Ġday":1353,"Ġalong":1354,"Ġter":1355,"oph":1356,"Ġgl":1357,"oot":1358,"dust":1359,"ox":1360,"ĠChinese":1361,"ĠMar":1362,"Ġappro":1363,"Ġexper":1364,"med":1365,"Ġstill":1366,"ĠJapan":1367,"Ġappe":1368,"aced":1369,"ĠBy":1370,"Ġcour":1371,"Ġ.":1372,"Ġdown":1373,"ases":1374,"Ġdiv":1375,"oint":1376,"Ġins":1377,"Ġprocess":1378,"ner":1379,"ĠAp":1380,"ĠGreek":1381,"Ġlocal":1382,"Ġparticular":1383,"ĠEmpire":1384,"ories":1385,"Ġgre":1386,"Ġav":1387,"ony":1388,"Ġstates":1389,"Ġdevelopment":1390,"Ġsocial":1391,"Ġperform":1392,"Ġrece":1393,"par":1394,"Ġstart":1395,"ek":1396,"Ġadv":1397,"Ġprof":1398,"Ġpo":1399,"Ġimportant":1400,"Ġ$":1401,"Ġtem":1402,"Ġareas":1403,"ets":1404,"idd":1405,"ese":1406,"Ġtechn":1407,"ĠCl":1408,"Ġmembers":1409,"ĠII":1410,"raph":1411,"Ġaff":1412,"ĠMay":1413,"Ġfact":1414,"ission":1415,"oth":1416,"iety":1417,"ĠâĢĵ":1418,"Ġestablished":1419,"Ġresp":1420,"ĠThese":1421,"Ġlate":1422,"20":1423,"Ġant":1424,"aim":1425,"ĠCan":1426,"ĠChina":1427,"by":1428,"Ġcountries":1429,"xt":1430,"thod":1431,"ĠThey":1432,"tal":1433,"Ġbased":1434,"Ġpopular":1435,"Ġdecl":1436,"omet":1437,"Ġdue":1438,"hem":1439,"amed":1440,"ederal":1441,"ondon":1442,"Ġgrow":1443,"astern":1444,"Ġopen":1445,"attle":1446,"ĠNational":1447,"ĠFrance":1448,"Ġpat":1449,"Ġarch":1450,"Ġmar":1451,"ergy":1452,"Ġrev":1453,"ober":1454,"Ġrefer":1455,"Ġseason":1456,".[":1457,"Ġorder":1458,"Ġlife":1459,"ĠJew":1460,"osition":1461,"Ġes":1462,"ĠYork":1463,"ball":1464,"Ġmove":1465,"Ġconsidered":1466,"ĠBC":1467,"ured":1468,"ĠThere":1469,"Ġvis":1470,"itution":1471,"Ġlast":1472,"Ġregion":1473,"aving":1474,"ivil":1475,"ves":1476,"Ġspecies":1477,"Ġif":1478,"ister":1479,"Ġwater":1480,"ĠLondon":1481,"Ġprim":1482,"ĠGr":1483,"Ġdeath":1484,"Ġopp":1485,"ĠPres":1486,"ember":1487,"Ġident":1488,"ilar":1489,"Ġgroups":1490,"ential":1491,"ament":1492,"Ġdeveloped":1493,"ull":1494,"Ġsignific":1495,"ĠRep":1496,"ively":1497,"Ġcrit":1498,"Ġauth":1499,"Ġstat":1500,"Ġindust":1501,"ological":1502,"Ġposs":1503,"Ġequ":1504,"ness":1505,"men":1506,"Ġhead":1507,"Ġpub":1508,"ĠAd":1509,"ality":1510,"ize":1511,"ole":1512,"Ġide":1513,"nect":1514,"18":1515,"gen":1516,"ĠPl":1517,"cially":1518,"Ġreport":1519,"Ġhistor":1520,"iber":1521,"resent":1522,"Ġprogr":1523,"ĠX":1524,"ody":1525,"Ġbelie":1526,"Ġless":1527,"Ġindepend":1528,"Ġfre":1529,"Ġbecome":1530,"ands":1531,"ĠEast":1532,"ense":1533,"uted":1534,"Ġyour":1535,"Ġjust":1536,"Ġrun":1537,"ĠChurch":1538,"Ġeduc":1539,"que":1540,"Ġhistory":1541,"urther":1542,"cer":1543,"Ġgu":1544,"Ġhow":1545,"Ġchang":1546,"Ġlevel":1547,"Ġsec":1548,"Ġalthough":1549,"Ġnorth":1550,"ilt":1551,"Ġpract":1552,"Ġtyp":1553,"Ġ14":1554,"ains":1555,"Ġport":1556,"lands":1557,"Ġ193":1558,"rab":1559,"lim":1560,"Ġforces":1561,"istic":1562,"enn":1563,"Ġlim":1564,"ĠMan":1565,"Ġsignificant":1566,"ston":1567,"ĠMon":1568,"Ġ13":1569,"Ġaddition":1570,"ĠGe":1571,"ator":1572,"Ġevery":1573,"Ġview":1574,"ĠIndia":1575,"val":1576,"ploy":1577,"omen":1578,"Ġvarious":1579,"Ġplace":1580,"wards":1581,"Ġfilm":1582,"Ġrul":1583,"com":1584,"Ġcer":1585,"Ġke":1586,"eng":1587,"Ġstandard":1588,"Ġhowever":1589,"Ġcurrent":1590,"ried":1591,"ats":1592,"Ġfive":1593,"Ġlight":1594,"Ġexpl":1595,"ches":1596,"ĠSome":1597,"Ġheld":1598,"ior":1599,"ĠAfter":1600,"Ġval":1601,"Ġword":1602,"olic":1603,"Ġanc":1604,"Ġcharacter":1605,"empt":1606,"ane":1607,"Ġfollowing":1608,"ĠRepublic":1609,"Ġfun":1610,"ley":1611,"ĠDuring":1612,"Ġrad":1613,"Ġcamp":1614,"ival":1615,"cing":1616,"Ġorigin":1617,"iddle":1618,"Ġfew":1619,"ĠJu":1620,"oviet":1621,"Ġfamily":1622,"Ġbus":1623,"iam":1624,"urb":1625,"Ġlove":1626,"Ġexist":1627,"ĠBl":1628,"Ġ'":1629,"ivid":1630,"tic":1631,"Ġauthor":1632,"Ġformer":1633,"arm":1634,"citation":1635,"Ġfore":1636,"Ġusing":1637,"itect":1638,"Ġ2010":1639,"lege":1640,"Ġpresent":1641,"10":1642,"rict":1643,"Ġenergy":1644,"Ġanother":1645,"cil":1646,"Ġgeneral":1647,"ule":1648,"ðŁ":1649,"Ġevent":1650,"ote":1651,"lp":1652,"Ġdev":1653,"ĠItal":1654,"amm":1655,"rid":1656,"Ġbas":1657,"Ġreligious":1658,"hern":1659,"eb":1660,"ogn":1661,"thern":1662,"Ġsouth":1663,"ĠSoviet":1664,"Ġsingle":1665,"Ġsol":1666,"Ġbre":1667,"Ġoccur":1668,"bor":1669,"ĠÂ°":1670,"Ġgood":1671,"ĠSept":1672,"Ġtook":1673,"ograph":1674,"Ġincluded":1675,"outhern":1676,"Ġcop":1677,"Ġfav":1678,"orthern":1679,"Ġredu":1680,"ilos":1681,"Ġer":1682,"ele":1683,"ĠPol":1684,"Ġintrodu":1685,"iness":1686,"Ġ,":1687,"Ġiss":1688,"ĠUnion":1689,"ĠEngland":1690,"Ġmake":1691,"ictor":1692,"Ġwin":1693,"Ġsimilar":1694,"ales":1695,"Ġdescrib":1696,"ĠSeptember":1697,"Ġ11":1698,"ividual":1699,"Ġreturn":1700,"ius":1701,"ators":1702,"Ġrepresent":1703,"ling":1704,"Ġlow":1705,"side":1706,"ption":1707,"uary":1708,"rain":1709,"ĠJan":1710,"ops":1711,"Ġhelp":1712,"Ġmonth":1713,"son":1714,"Ġ195":1715,"Ġstudy":1716,"Ġlo":1717,"Ġwithout":1718,"ĠBritain":1719,"less":1720,"ĠPort":1721,"Ġcapital":1722,"Ġpur":1723,"Ġassoci":1724,"vious":1725,"ĠLeague":1726,"tt":1727,"Ġsepar":1728,"Ġprop":1729,"Ġlocated":1730,"most":1731,"iven":1732,"irc":1733,"ata":1734,"bum":1735,"atural":1736,"Ġusually":1737,"ouncil":1738,"Ġcaus":1739,"Ġla":1740,"ugust":1741,"Ġactiv":1742,"int":1743,"ĠSw":1744,"Ġtotal":1745,"ĠFran":1746,"ĠAll":1747,"here":1748,"Ġclaim":1749,"Ġrelations":1750,"Ġinvol":1751,"Ġwide":1752,"Ġcame":1753,"Ġcompet":1754,"pecially":1755,"Ġdog":1756,"ien":1757,"Ġrese":1758,"Ġterrit":1759,"ites":1760,"Ġtop":1761,"rum":1762,"Ġrepl":1763,"mit":1764,"sc":1765,"Ġindividual":1766,"Ġsaid":1767,"ination":1768,"ĠChar":1769,"Ġcontinued":1770,"ĠGen":1771,"isc":1772,"ĠAugust":1773,"ccording":1774,"Ġaver":1775,"ither":1776,"alf":1777,"iron":1778,"yl":1779,"ĠMin":1780,"ĠPe":1781,"ĠNe":1782,"Ġeng":1783,"ĠPart":1784,"Ġbuilt":1785,"ĠJune":1786,"Ġpriv":1787,"ruction":1788,"Ġthird":1789,"Ġinit":1790,"ained":1791,"for":1792,"Ġculture":1793,"Ġpost":1794,"ĠAmerica":1795,"raft":1796,"asing":1797,"Ġpercent":1798,"Ġpred":1799,"atin":1800,"ows":1801,"Ġearli":1802,"Ġconnect":1803,"ably":1804,"sequ":1805,"Ġlab":1806,"ĠGeor":1807,"lym":1808,"ze":1809,"aster":1810,"Ġshort":1811,"Ġ2013":1812,"ĠGu":1813,"ĠJanuary":1814,"xual":1815,"ĠMarch":1816,"ĠMed":1817,"Ġchildren":1818,"Ġ2008":1819,"Ġreleased":1820,"Ġread":1821,"Ġtele":1822,"Ġothers":1823,"Ġsix":1824,"Ġphilos":1825,"go":1826,"Ġservice":1827,"Ġcivil":1828,"ĠOct":1829,"Ġdest":1830,"Ġfeat":1831,"ĠQue":1832,"Ġmult":1833,"Ġadmin":1834,"Ġinternational":1835,"ĠAir":1836,"ead":1837,"Ġenc":1838,"Ġtreat":1839,"Ġline":1840,"ĠTr":1841,"Ġpolic":1842,"ĠJuly":1843,"cts":1844,"ĠChristian":1845,"Ġarchitect":1846,"Ġalbum":1847,"ril":1848,"udd":1849,"gypt":1850,"ĠArab":1851,"Ġfurther":1852,"Ġhouse":1853,"Ġmater":1854,"Ġ2009":1855,"ched":1856,"Ġclub":1857,"Ġking":1858,"Ġsour":1859,"Ġattempt":1860,"ĠCanad":1861,"ĠðŁ":1862,"Ġcover":1863,"ĠAss":1864,"Ġespecially":1865,"Ġknow":1866,"Ġz":1867,"ĠAb":1868,"ĠOther":1869,"Ġlist":1870,"Ġcomb":1871,"ae":1872,"ends":1873,"Ġfood":1874,"ĠVictor":1875,"Ġphys":1876,"ĠGermany":1877,"Ġmot":1878,"Ġred":1879,"lo":1880,"anish":1881,"Ġbeh":1882,"Ġway":1883,"iation":1884,"ĠGreat":1885,"ĠAfrican":1886,"ple":1887,"ung":1888,"Ġcompany":1889,"wh":1890,"ances":1891,"Ġanim":1892,"yle":1893,"ĠPresident":1894,"ootball":1895,"Ġtimes":1896,"lam":1897,"Ġvol":1898,"ĠOctober":1899,"uf":1900,"Ġliter":1901,"Ġstruct":1902,"Ġthroughout":1903,"ĠParis":1904,"rest":1905,"Ġeconomic":1906,"ĠAm":1907,"ometimes":1908,"ental":1909,"ĠGod":1910,"Ġcr":1911,"bour":1912,"ending":1913,"Ġturn":1914,"be":1915,"Ġcities":1916,"Ġsold":1917,"ĠEgypt":1918,"ĠAustral":1919,"Ġstrong":1920,"reme":1921,"Ġ2011":1922,"Ġgenerally":1923,"utions":1924,"Ġmean":1925,"ering":1926,"Ġparts":1927,"arily":1928,"Ġhigher":1929,"reet":1930,"Ġlive":1931,"Ġsystems":1932,"ode":1933,"alk":1934,"Ġschools":1935,"Ġfree":1936,"Ġfield":1937,"ĠHis":1938,"ify":1939,"Ġkm":1940,"avy":1941,"Ġshould":1942,"Ġcentral":1943,"att":1944,"Ġtit":1945,"ification":1946,"Ġprotect":1947,"Äģ":1948,"Ġmen":1949,"ounced":1950,"Ġhand":1951,"Ġcreated":1952,"Ġren":1953,"ounds":1954,"Ġlanguages":1955,"ached":1956,"Ġhost":1957,"Ġnamed":1958,"aj":1959,"Ġeducation":1960,"lav":1961,"Ġbody":1962,"lear":1963,"Ġbi":1964,"Ġdial":1965,"ĠBar":1966,"ĠPhil":1967,"Ġmaterial":1968,"ention":1969,"cember":1970,"Ġproduced":1971,"Ġarg":1972,"Ġmid":1973,"Ġprevious":1974,"rated":1975,"osp":1976,"Ġrole":1977,"...":1978,"ĠComp":1979,"used":1980,"Ġoriginal":1981,"ideo":1982,"Ġbegin":1983,"Ġsug":1984,"Ġ2012":1985,"ĠApril":1986,"ĠDecember":1987,"Ġscient":1988,"bo":1989,"cast":1990,"Ġwon":1991,"Ġdel":1992,"exic":1993,"imately":1994,"Ġavail":1995,"chol":1996,"ports":1997,"Ġarmy":1998,"Ġcolon":1999,"ĠGre":2000,"Ġproduction":2001,"rug":2002,"Ġsong":2003,"ĠKingdom":2004,"Ġrule":2005,"ief":2006,"Ġmarket":2007,"Ġinfluence":2008,"ovember":2009,"ĠPal":2010,"Ġstudents":2011,"aken":2012,"Ġ?":2013,"Ġtown":2014,"uddh":2015,"ibet":2016,"acks":2017,"onc":2018,"Ġeth":2019,"ĠWestern":2020,"Ġbroad":2021,"ana":2022,"Ġsk":2023,"Ġvers":2024,"Ġage":2025,"ĠCath":2026,"Ġgiven":2027,"âĢĻ":2028,"Ġ2014":2029,"ots":2030,"acy":2031,"work":2032,"ĠNovember":2033,"Ġresearch":2034,"Ġaverage":2035,"Ġbuilding":2036,"idence":2037,"Ġrecogn":2038,"ym":2039,"Ġdon":2040,"Ġteam":2041,"Ġdays":2042,"atter":2043,"Ġbor":2044,"Ġtemper":2045,"rial":2046,"oyal":2047,"Ġ2007":2048,"ffic":2049,"Ġnatural":2050,"aries":2051,"Ġproper":2052,"now":2053,"ests":2054,"Ġtake":2055,"ored":2056,"ially":2057,"Ġreceived":2058,"duct":2059,"Ġacross":2060,"vision":2061,"Ġfederal":2062,"ĠRiver":2063,"Ġagre":2064,"Ġfrequ":2065,"rael":2066,"Ġdoes":2067,"Ġadop":2068,"ĠConst":2069,"aven":2070,"15":2071,"ĠSchool":2072,"Ġsent":2073,"Ġcirc":2074,"ĠĠ":2075,"Ġconc":2076,"Ġfac":2077,"ĠShe":2078,"Ġcommer":2079,"Ġmag":2080,"ĠBro":2081,"Ġinform":2082,"Ġemploy":2083,"Ġleft":2084,"Ġ25":2085,"iate":2086,"17":2087,"Ġmass":2088,"Ġplayed":2089,"ids":2090,"ĠWill":2091,"Ġformed":2092,"Ġdomin":2093,"ining":2094,"app":2095,"Ġtraditional":2096,"Ġseries":2097,"itive":2098,"ĠState":2099,"Ġpain":2100,"peror":2101,"Ġspecial":2102,"Ġparticularly":2103,"Ġnet":2104,"ensive":2105,"fic":2106,"Ġincreased":2107,"Ġel":2108,"akes":2109,"Ġclose":2110,"Ġattack":2111,"ĠMexic":2112,"owers":2113,"Ġconcept":2114,"ipp":2115,"ĠEx":2116,"Ġhaving":2117,"ĠOtt":2118,"uter":2119,"Ġfar":2120,"ĠRussian":2121,"Ġplan":2122,"Ġcolor":2123,"Ġmajority":2124,"Ġfail":2125,"ison":2126,"ĠRev":2127,"ert":2128,"ĠArmy":2129,"Ġhalf":2130,"sp":2131,"Ġmust":2132,"Ġproble":2133,"Ġaut":2134,"incip":2135,"ĠInternational":2136,"line":2137,"Ġrather":2138,"yonc":2139,"yoncÃ©":2140,"enc":2141,"ama":2142,"Ġadminist":2143,"On":2144,"ĠJapanese":2145,"stand":2146,"Ġkill":2147,"apt":2148,"60":2149,"Ġdeb":2150,"ope":2151,"Ġcond":2152,"sel":2153,"12":2154,"uan":2155,"Ġhighest":2156,"Ġprivate":2157,"Ġwomen":2158,"ler":2159,"omb":2160,"etic":2161,"Ġterms":2162,"ĠBuddh":2163,"Ġexec":2164,"ones":2165,"ĠBo":2166,"Ġprofess":2167,"Ġmanag":2168,"ĠQueen":2169,"Ġeither":2170,"Ġmaking":2171,"emb":2172,"Ġgame":2173,"Ġmethod":2174,"Ġbillion":2175,"Ġ30":2176,"Ġimm":2177,"Ġhard":2178,"ĠIndian":2179,"ĠVictoria":2180,"Ġaud":2181,"14":2182,"Ġsometimes":2183,"Ġforms":2184,"Ġitself":2185,"Ġinvest":2186,"Ġdefe":2187,"eum":2188,"Ġhun":2189,"ades":2190,"ability":2191,"rought":2192,".,":2193,"ĠEd":2194,"yd":2195,"ps":2196,"ĠAfrica":2197,"Ġhold":2198,"Ġforce":2199,"Ġtour":2200,"Ġ2006":2201,"Ġbest":2202,"Ġdr":2203,"Ġtoo":2204,"Ġcell":2205,"Ġpri":2206,"ware":2207,"Ġrock":2208,"Ġtro":2209,"Ġmaintain":2210,"Ġobject":2211,"ĠHouse":2212,"Ġavailable":2213,"ĠLatin":2214,"ĠMad":2215,"Ġuniversity":2216,"Ġpresident":2217,"Ġgrowth":2218,"uk":2219,"ĠAccording":2220,"Ġworks":2221,"Ġsubject":2222,"ray":2223,"Ġve":2224,"ĠTibet":2225,"Ġcase":2226,"ĠMany":2227,"Ġcultural":2228,"'t":2229,"ynast":2230,"artment":2231,"sh":2232,"nic":2233,"ĠCouncil":2234,"uries":2235,"Ġlaun":2236,"ving":2237,"Ġunivers":2238,"chie":2239,"aper":2240,"lor":2241,"ression":2242,"eration":2243,"Ġsuggest":2244,"Ġsum":2245,"light":2246,"ĠIslam":2247,"ront":2248,"ways":2249,"estic":2250,"ateg":2251,"ebru":2252,"Ġfollowed":2253,"Ġbusiness":2254,"'m":2255,"Ġisland":2256,"ought":2257,"ebruary":2258,"Ġpublished":2259,"Ġrights":2260,"Ġreal":2261,"Ġfull":2262,"urg":2263,"Ġwest":2264,"Ġoffer":2265,"Ġdet":2266,"Ġfinan":2267,"ĠGeneral":2268,"aul":2269,"Ġ100":2270,"ĠSpanish":2271,"anted":2272,"Ġannounced":2273,"Ġphilosoph":2274,"erous":2275,"craft":2276,"Ġpress":2277,"ency":2278,"Ġsaw":2279,"ĠCollege":2280,"atory":2281,"Ġ192":2282,"Ġfavor":2283,"Ġpoint":2284,"ĠFebruary":2285,"ĠOne":2286,"ĠAct":2287,"Ġregard":2288,"ask":2289,"Ġrespect":2290,"ĠAng":2291,"Ġcoll":2292,"ript":2293,"Ġdistin":2294,"gre":2295,"pite":2296,"ĠIm":2297,"ĠArmen":2298,"alt":2299,"lex":2300,"ĠCatholic":2301,"Ġri":2302,"Ġaccept":2303,"Ġimpro":2304,"Ġsuccessful":2305,"Ġsym":2306,"ĠPark":2307,"Ġfund":2308,"Ġrange":2309,"Ġposition":2310,"Ġincreasing":2311,"ĠWhat":2312,"Ġcourt":2313,"ria":2314,"ĠWhen":2315,"ores":2316,"Ġsee":2317,"ĠIsrael":2318,"ĠMe":2319,"Ġaccount":2320,"Ġcost":2321,"ĠWith":2322,"Ġintroduced":2323,"Ġsw":2324,"ĠMac":2325,"ĠApp":2326,"Ġestim":2327,"Ġestablish":2328,"ĠCong":2329,"adem":2330,"30":2331,"Ġschol":2332,"Ġlower":2333,"Ġep":2334,"ĠSan":2335,"Ġrate":2336,"of":2337,"ĠEl":2338,"Ġhealth":2339,"Ġcertain":2340,"selves":2341,"viron":2342,"Ġneigh":2343,"Ġachie":2344,"Ġliving":2345,"ufact":2346,"ĠBeyoncÃ©":2347,"ya":2348,"Ġappear":2349,"Ġdiscover":2350,"ef":2351,"Ġgames":2352,"self":2353,"ĠGovern":2354,"ĠCour":2355,"Ġnever":2356,"Ġrelative":2357,"ĠPortug":2358,"II":2359,"Ġleast":2360,"ĠAsia":2361,"ott":2362,"ĠHan":2363,"Ġmeas":2364,"ica":2365,"ille":2366,"co":2367,"Ġthemselves":2368,"hood":2369,"Ġtheory":2370,"Ġremained":2371,"16":2372,"Ġfounded":2373,"ising":2374,"Ġhous":2375,"Ġtrade":2376,"Ġtoday":2377,"Ġblack":2378,"Ġminor":2379,"ĠGeorge":2380,"40":2381,"Ġwhite":2382,"ressed":2383,"hi":2384,"Ġemer":2385,"Ġcontrib":2386,"ery":2387,"thing":2388,"Ġprincip":2389,"80":2390,"Ġforeign":2391,"Ġtrib":2392,"Ġchange":2393,"Ġfinal":2394,"Ġbrought":2395,"Ġnorthern":2396,"ching":2397,"add":2398,"Ġ2015":2399,"ĠHar":2400,"Ġentire":2401,"urban":2402,"ĠMiddle":2403,"ocr":2404,"Ġaccording":2405,"asion":2406,"aff":2407,"Ġindustry":2408,"Ġver":2409,"Ġsouthern":2410,"Ġeast":2411,"ĠEar":2412,"Ġrelationship":2413,"ĠTur":2414,"iers":2415,"Ġwritten":2416,"Ġtw":2417,"Ġhum":2418,"asons":2419,"quare":2420,"ush":2421,"roy":2422,"ctions":2423,"Ġcenturies":2424,"Ġoccup":2425,"ĠOttoman":2426,"Ġ187":2427,"Ġge":2428,"ĠWhile":2429,"ĠVal":2430,"Ġjud":2431,"utes":2432,"ĠMuslim":2433,"Ġprogram":2434,"ours":2435,"alls":2436,"Ġjoin":2437,"Ġ[":2438,"Ġseen":2439,"ĠRes":2440,"lection":2441,"Ġbook":2442,"Ġevents":2443,"Ġthought":2444,"ype":2445,"Ġdata":2446,"igr":2447,"Ġprovide":2448,"Ġcit":2449,"Ġparty":2450,"augh":2451,"rew":2452,"Ġnext":2453,"Ġfri":2454,"unic":2455,"Ġship":2456,"Ġgrad":2457,"perial":2458,"rote":2459,"Ġcoast":2460,"Ġlittle":2461,"ilities":2462,"ingu":2463,"ĠCal":2464,"Ġalmost":2465,"Ġmovement":2466,"Ġtravel":2467,"ned":2468,"Ġallowed":2469,"ington":2470,"ĠPre":2471,"Ġproject":2472,"Ġlet":2473,"Ġself":2474,"Ġside":2475,"ude":2476,"Ġrank":2477,"oles":2478,"hib":2479,"Ġdom":2480,"Ġfoc":2481,"Ġright":2482,"Ġupon":2483,"ĠPruss":2484,"hers":2485,"Ġobs":2486,"chan":2487,"Ġexcept":2488,"Ġleading":2489,"Ġassociated":2490,"aign":2491,"iew":2492,"ĠNap":2493,"Ġpot":2494,"ont":2495,"based":2496,"ĠAlthough":2497,"Ġcare":2498,"itu":2499,"Ġmount":2500,"ynasty":2501,"ander":2502,"Ġnation":2503,"Ġincludes":2504,"bert":2505,"ĠInst":2506,"ĠMa":2507,"Ġmer":2508,"antic":2509,"onst":2510,"ara":2511,"ĠRich":2512,"Ġprimary":2513,"isl":2514,"Ġdeter":2515,"liament":2516,"head":2517,"Ġdescribed":2518,"iqu":2519,"aves":2520,"NA":2521,"orpor":2522,"Ġservices":2523,"oted":2524,"ĠKore":2525,"Ġ2005":2526,"ĠJews":2527,"Ġaccess":2528,"ĠCentral":2529,"Ġloss":2530,"Ġrespons":2531,"irds":2532,"Ġcommunity":2533,"Ġdesigned":2534,"cul":2535,"ĠHaven":2536,"Ġtest":2537,"Ġpossible":2538,"aces":2539,"Ġstarted":2540,"Ġchanges":2541,"like":2542,"Ġanal":2543,"enced":2544,"Ġmanufact":2545,"ras":2546,"ĠCo":2547,"ceed":2548,"Ġstyle":2549,"Ġcases":2550,"oleon":2551,"ened":2552,"clus":2553,"Ġstatus":2554,"Ġcal":2555,"200":2556,"Ġmeet":2557,"ĠSy":2558,"Ġviol":2559,"ĠJewish":2560,"Ġwrote":2561,"Ġbuildings":2562,"Ġfinancial":2563,"Ġmedia":2564,"raw":2565,"ĠDo":2566,"aps":2567,"Ġsyn":2568,"ma":2569,"Ġcompan":2570,"ĠCount":2571,"anded":2572,"right":2573,"Ġdri":2574,"Ġsuper":2575,"Ġconcern":2576,"Ġabs":2577,"Ġinstit":2578,"Ġrequired":2579,"inent":2580,"Ġincrease":2581,"osa":2582,"Ġplants":2583,"ĠBur":2584,"ards":2585,"Ġchurch":2586,"Ġder":2587,"Ġscience":2588,"Ġmix":2589,"ĠSom":2590,"Ġlaws":2591,"Ġreported":2592,"Ġcommercial":2593,"Ġera":2594,"BC":2595,"Ġdig":2596,"ĠDes":2597,"Ġinterest":2598,"13":2599,"ĠNo":2600,"vironment":2601,"Ġindic":2602,"asser":2603,"Ġwestern":2604,"utch":2605,"Ġbeginning":2606,"rag":2607,"Ġneg":2608,"Ġlegal":2609,"icro":2610,"rown":2611,"Ġwidely":2612,"ords":2613,"Ġsexual":2614,"ĠProt":2615,"ape":2616,"Ġinstrum":2617,"ĠRome":2618,"uran":2619,"not":2620,"Ġtax":2621,"oms":2622,"Ġoutside":2623,"Ġapplic":2624,"Ġ190":2625,"wide":2626,"Ġfem":2627,"atives":2628,"Ġeffort":2629,"Ġ1990":2630,"Ġamount":2631,"mar":2632,"Ġbar":2633,"ĠCenter":2634,"ounter":2635,"Ġcomplete":2636,"rian":2637,"Ġmi":2638,"Ġvict":2639,"Ġpolicy":2640,"ali":2641,"ham":2642,"ternal":2643,"irth":2644,"ĠCourt":2645,"ĠRoyal":2646,"Ġmeans":2647,"Ġleaders":2648,"Ġpast":2649,"eleb":2650,"ĠWilliam":2651,"kl":2652,"ĠHer":2653,"Ġancient":2654,"\")":2655,"ĠSu":2656,"ĠStreet":2657,"ĠAnt":2658,"Ġten":2659,"Ġinformation":2660,"Ġworking":2661,"iding":2662,"etro":2663,"bs":2664,"Ġson":2665,"Ġconsist":2666,"west":2667,"venue":2668,"Ġindependent":2669,"Ġmor":2670,"Ġmodel":2671,"Ġvideo":2672,"Ġcomplex":2673,"Ġvisit":2674,"Ġeconomy":2675,"Ġrail":2676,"Ġsuff":2677,"ples":2678,"Ġthus":2679,"ĠSec":2680,"pan":2681,"Ġfind":2682,"Ġreferred":2683,"Ġcampaign":2684,"ĠGl":2685,"Ġyoun":2686,"11":2687,"Ġreached":2688,"Ġwhose":2689,"Ġspace":2690,"Ġethnic":2691,"Ġreb":2692,"ĠLib":2693,"Ġ24":2694,"ĠAustralia":2695,"ĠBattle":2696,"olit":2697,"Ġden":2698,"ented":2699,"Ġcapac":2700,"ires":2701,"Ġmoved":2702,"Ġbecom":2703,"ximately":2704,"Ġpen":2705,"Ġsubst":2706,"Ġ2000":2707,"ĠGreece":2708,"ream":2709,"Ġfootball":2710,"rast":2711,"Ġ(\"":2712,"Ġdiffic":2713,"porary":2714,"Ġtor":2715,"Ġsoft":2716,"ulation":2717,"Ġable":2718,"ĠVir":2719,"Ġregions":2720,"utive":2721,"see":2722,"Ġconflic":2723,"ensus":2724,"let":2725,"Ġprovided":2726,"oks":2727,"Ġrap":2728,"ĠEastern":2729,"Ġmonths":2730,"ĠRevolution":2731,"Ġ21":2732,"ĠDem":2733,"ique":2734,"Ġabove":2735,"Ġinstead":2736,"Ġmother":2737,"Ġelev":2738,"opin":2739,"Ġcross":2740,"istan":2741,"Ġseparate":2742,"oly":2743,"Ġhom":2744,"lement":2745,"Ġcaused":2746,"Ġplant":2747,"ĠTo":2748,"ĠNapoleon":2749,"ney":2750,"istance":2751,"Ġ40":2752,"Ġconstruction":2753,"Ġdifficult":2754,"aint":2755,"ĠTe":2756,"Ġcenter":2757,"ĠWhite":2758,"Ġsound":2759,"Ch":2760,"ĠAlex":2761,"lymp":2762,"Ġcompanies":2763,"Ġdisp":2764,"Ġreform":2765,"Ġcollect":2766,"Ġaircraft":2767,"Ġtroops":2768,"ledge":2769,"Ġcapt":2770,"ĠSam":2771,"Ġlost":2772,"Ġconsum":2773,"ĠAnd":2774,"Ġsett":2775,"irm":2776,"Ġfather":2777,"Ġmember":2778,"Ġeventually":2779,"Ġlear":2780,"Ġmeaning":2781,"itz":2782,"Ġparticip":2783,"Ġtelevision":2784,"Ġcritic":2785,"Ġdemonst":2786,"Ġdialect":2787,"Ġceleb":2788,"face":2789,"Ġpos":2790,"ĠCat":2791,"round":2792,"ĠDep":2793,"Ġspread":2794,"ĠDel":2795,"Ġtoget":2796,"ĠIsland":2797,"Ġtogether":2798,"Ġweek":2799,"iences":2800,"ona":2801,"Ġeastern":2802,"Ġpowers":2803,"Ġconduct":2804,"aching":2805,"ĠAmericans":2806,"town":2807,"Ġmechan":2808,"Ġsurv":2809,"ĠEmperor":2810,"idents":2811,"Ġoffice":2812,"Ġwent":2813,"Ġonce":2814,"urity":2815,"Ġlimited":2816,"ta":2817,"Ġbacter":2818,"ĠSoc":2819,"ĠUK":2820,"anks":2821,"oney":2822,"Ġdynasty":2823,"Ġtext":2824,"ĠLa":2825,"ĠDutch":2826,"iter":2827,"Ġrecent":2828,"Ġaffect":2829,"ĠWind":2830,"Ġ189":2831,"Ġearlier":2832,"Ġfall":2833,"Ġancest":2834,"Ġestimated":2835,"Ġ1970":2836,"hold":2837,"oston":2838,"Ġquest":2839,"Ġsubsequ":2840,"Ġ50":2841,"Ġcontain":2842,"ills":2843,"ĠYou":2844,"ctor":2845,"ĠCanada":2846,"Ġdestroy":2847,"Ġlargely":2848,"ĠItaly":2849,"ij":2850,"su":2851,"Ġchem":2852,"Ġaction":2853,"Ã¡":2854,"ĠMount":2855,"ĠMexico":2856,"Ġvariety":2857,"de":2858,"Ġtar":2859,"ĠNasser":2860,"ĠReg":2861,"Ġmand":2862,"Ġanimals":2863,"Ġemb":2864,"ointed":2865,"Ġtypically":2866,"ĠCongress":2867,"cont":2868,"Ġmostly":2869,"Ġgave":2870,"aged":2871,"Ġelectric":2872,"iated":2873,"Ġdied":2874,"Ġexam":2875,"Ġserved":2876,"Ġadopted":2877,"bit":2878,"Ġrelated":2879,"ĠMy":2880,"ĠBra":2881,"ridge":2882,"isions":2883,"uck":2884,"erry":2885,"amb":2886,"Ġstation":2887,"Ġspeak":2888,"isms":2889,"Ġterritory":2890,"Ġcitiz":2891,"Ġbase":2892,"Ġspecific":2893,"Ġ186":2894,"ĠMost":2895,"Ġrout":2896,"Ġlarger":2897,"uel":2898,"Ġconstitution":2899,"ĠOlymp":2900,"Ġsource":2901,"ios":2902,"arian":2903,"Ġ183":2904,"gress":2905,"Ġthous":2906,"Ġenvironment":2907,"Ġground":2908,"Ġlegisl":2909,"St":2910,"ĠMel":2911,"Ġnetwork":2912,"ĠMary":2913,"Ġdise":2914,"Ġbene":2915,"oul":2916,"elling":2917,"Ġtaken":2918,"abor":2919,"Ġdispl":2920,"ĠCarol":2921,"An":2922,"pir":2923,"Ġput":2924,"Ġscientific":2925,"ĠCompany":2926,"Ġdam":2927,"Ġgreater":2928,"ĠParty":2929,"Ġannual":2930,"As":2931,"Ġteams":2932,"Ġband":2933,"Ġradio":2934,"Ġinvolved":2935,"heast":2936,"Ġdoc":2937,"spe":2938,"Ġfa":2939,"Ġprevent":2940,"Ġ185":2941,"Ġtransl":2942,"Ġreplaced":2943,"Ġpa":2944,"reland":2945,"Ġoil":2946,"ength":2947,"ĠHen":2948,"ibility":2949,"Ġphilosophy":2950,"Th":2951,"Ġinse":2952,"Ġconsider":2953,"Ġreligion":2954,"Ġdogs":2955,"ads":2956,"Ġ1980":2957,"Ġcommonly":2958,"Ġwords":2959,"Ġnearly":2960,"Ġpersonal":2961,"Ġwind":2962,"Ġbomb":2963,"Ġfamil":2964,"Ġopened":2965,"Ġscholars":2966,"Ġfut":2967,"obal":2968,"Ġengine":2969,"Ġindependence":2970,"Ġurban":2971,"Ġtype":2972,"itute":2973,"Ġjob":2974,"ĠðŁĺ":2975,"Ġpassed":2976,"Ġprimarily":2977,"rel":2978,"oma":2979,"ait":2980,"rus":2981,"Ġthink":2982,"ĠSch":2983,"ĠIreland":2984,"Ġcho":2985,"Ġkingdom":2986,"sy":2987,"nal":2988,"ĠRo":2989,"Ġsettle":2990,"Ġsay":2991,"ĠBr":2992,"Ġdefin":2993,"ĠChopin":2994,"ean":2995,"ĠSer":2996,"Ġforced":2997,"Ġapproximately":2998,"Ġdomestic":2999,"ĠItalian":3000,"ĠPaul":3001,"Ġcause":3002,"Ġevidence":3003,"Ġbirth":3004,"Ġconqu":3005,",\"":3006,"Ġ2004":3007,"ey":3008,"ampions":3009,"ula":3010,"ĠHell":3011,"onse":3012,"Ġdi":3013,"Ġarchitecture":3014,"Ġunderstand":3015,"Ġremains":3016,"ĠBoston":3017,"ĠGrand":3018,"Ġcommit":3019,"Ġtransport":3020,"Ġsite":3021,"Ġnature":3022,"Ġ&":3023,"Ġ0":3024,"abit":3025,"Ġsea":3026,"rary":3027,"erc":3028,"thodox":3029,"Ġtitle":3030,"time":3031,"ÃŃ":3032,"umb":3033,"rap":3034,"Ġcommunic":3035,"Ġactive":3036,"ĠAtl":3037,"Ġpurp":3038,"ĠCub":3039,"Ġphot":3040,"itor":3041,"Ġrapid":3042,"Ġpay":3043,"Ġstructure":3044,"istor":3045,"ems":3046,"Ġcontinu":3047,"Ġuniversities":3048,"throp":3049,"Ġvir":3050,"Ġelected":3051,"Ġfamous":3052,"ĠIran":3053,"Ġroy":3054,"ĠCharles":3055,"Ġfig":3056,"ĠRussia":3057,"anned":3058,"Ġdistinct":3059,"chest":3060,"wood":3061,"Ġproduce":3062,"Ġsociety":3063,"Ġarm":3064,"ĠFederal":3065,"aval":3066,"Ġpolice":3067,"Ġelements":3068,"Ġsat":3069,"Ġelection":3070,"Ġacqu":3071,"igration":3072,"ĠHow":3073,"ĠBel":3074,"olved":3075,"ference":3076,"ago":3077,"Ġaccom":3078,"Ġrelease":3079,"Ġdeclared":3080,"Ġthreat":3081,"Ġpotential":3082,"bon":3083,"year":3084,"ino":3085,"addaf":3086,"ĠFirst":3087,"ricult":3088,"Ġstudies":3089,"Ġever":3090,"ster":3091,"undred":3092,"Ġpractice":3093,"Ġwat":3094,"Ġlack":3095,"unk":3096,"Ġwhether":3097,"Ġreact":3098,"Ġeight":3099,"ĠCup":3100,"Ġtre":3101,"Ġsize":3102,"Ġearth":3103,"Ġhimself":3104,"Ġempire":3105,"Ġkilled":3106,"Ġborder":3107,"win":3108,"leg":3109,"Ġring":3110,"Ġauthority":3111,"lying":3112,"ĠPers":3113,"urs":3114,"ĠKh":3115,"Ġemot":3116,"25":3117,"istics":3118,"Ġoperations":3119,"mediate":3120,"Ġdistrib":3121,"ĠCommun":3122,"Ġfeatures":3123,"Ġlines":3124,"ĠEston":3125,"Ġliber":3126,"ĠSince":3127,"lied":3128,"part":3129,"Ġlevels":3130,"hel":3131,"Ġcreat":3132,"ĠOld":3133,"Ġcompon":3134,"isation":3135,"Ġlay":3136,"ĠHigh":3137,"Ġdirectly":3138,"ĠJames":3139,"Ġfuture":3140,"ĠAre":3141,"Ġdocum":3142,"Ġprofessional":3143,"pro":3144,"urches":3145,"Ġnumerous":3146,"Ġresponse":3147,"key":3148,"ĠAssoci":3149,"onna":3150,"anced":3151,"ee":3152,"oura":3153,"Ġrelatively":3154,"ih":3155,"Ġlonger":3156,"Ġartists":3157,"Ġris":3158,"ashington":3159,"ĠApple":3160,"Ġsmaller":3161,"Ġbelieved":3162,"olitan":3163,"igen":3164,"Ġrise":3165,"Ġspeed":3166,"Ġbroadcast":3167,"Ġsoon":3168,"Ġ1960":3169,"Ġprior":3170,"ĠArt":3171,"Ġcust":3172,"ĠAD":3173,"ĠMuseum":3174,"Ġneighbor":3175,"enh":3176,"Ġwood":3177,"berg":3178,"iction":3179,"Ġobserv":3180,"Ġsitu":3181,"ĠBlack":3182,"Ġ184":3183,"Ġaway":3184,"Ġinstitutions":3185,"war":3186,"Ġcat":3187,"Ġtarget":3188,"oor":3189,"ĠLou":3190,"acters":3191,"Ġcitizens":3192,"ken":3193,"ties":3194,"Ġconver":3195,"Ġclassical":3196,"Ġversion":3197,"ĠDav":3198,"Ġattract":3199,"Ġtechnology":3200,"addafi":3201,"Ġbehav":3202,"Ġfavorite":3203,"airs":3204,"uge":3205,"ena":3206,"ida":3207,"ĠFrom":3208,"Ġâ":3209,"Ġnecess":3210,"Ġsymb":3211,"Ġregional":3212,"Ġenter":3213,"Ġanti":3214,"vention":3215,"Ġnorm":3216,"Ġrecords":3217,"ĠIslamic":3218,"ĠMu":3219,"Ġexperim":3220,"ha":3221,"lin":3222,"Ġsem":3223,"Ġcy":3224,"iverse":3225,"Ġ22":3226,"Ġget":3227,"Ġknowledge":3228,"Ġreflect":3229,"Ġtri":3230,"ĠBell":3231,"ĠPer":3232,"Ġislands":3233,"ift":3234,"reng":3235,"Ġexpect":3236,"ĠSun":3237,"odern":3238,"Ġstated":3239,"Ġtypes":3240,"Ġhighly":3241,"Ġexperience":3242,"ners":3243,"Ġet":3244,"Ġuses":3245,"Ġfunction":3246,"Ġtemperature":3247,"rim":3248,"Ġnumbers":3249,"Ġregul":3250,"Ġalways":3251,"ror":3252,"Ġcentre":3253,"Ġpeace":3254,"Ġresulting":3255,"During":3256,"Ġcred":3257,"Ġcommunities":3258,"ĠGal":3259,"Ġmultip":3260,"Ġfire":3261,"Ġ23":3262,"Ġhistorical":3263,"Ġcut":3264,"ĠArch":3265,"ready":3266,"Ġroyal":3267,"ĠSpain":3268,"Ġregular":3269,"Ġrecorded":3270,"ĠCarolina":3271,"Ġcharacters":3272,"Ġ/":3273,"Ġdivided":3274,"ËĪ":3275,"Ġmoney":3276,"cean":3277,"Ġsports":3278,"Ġsupported":3279,"Ġhyd":3280,"Ġdoing":3281,"Ġprec":3282,"Ġkey":3283,"Ġcomputer":3284,"Ġstudent":3285,"emporary":3286,"Ġtorch":3287,"Ġbirds":3288,"ulf":3289,"Ġdiscuss":3290,"Ġ1950":3291,"Ġsens":3292,"igned":3293,"Ġperformance":3294,"ĠWashington":3295,"Ġmiss":3296,"ĠUN":3297,"ĠCont":3298,"Ġclear":3299,"Ġess":3300,"Ġvac":3301,"Ġearliest":3302,"rate":3303,"Ġblue":3304,"Ġlatter":3305,"Ġseven":3306,"erve":3307,"Ġkind":3308,"Ġphysical":3309,"ĠSpe":3310,"Ġult":3311,"Ġmight":3312,"Ġidentity":3313,"Ġadministration":3314,"ollowing":3315,"Ġmonarch":3316,"Ġdeal":3317,"Ġinterp":3318,"Ġproblems":3319,"Ġanten":3320,"cle":3321,"ĠPrince":3322,"ropolitan":3323,"Ġrequire":3324,");":3325,"Ġbr":3326,"Ġresulted":3327,"Ġoccurred":3328,"bourne":3329,"pper":3330,"ĠIts":3331,"Ġglass":3332,"ĠProtest":3333,"Ġnight":3334,"Ġexpans":3335,"Ġbran":3336,"ĠSup":3337,"Ġsurround":3338,"Ġadded":3339,"Ġinfluenced":3340,"Ġreturned":3341,"adium":3342,"ume":3343,"Ġplayers":3344,"ols":3345,"Ġactivity":3346,"Ġsil":3347,"opp":3348,"rents":3349,"ocratic":3350,"Ġvo":3351,"ĠThom":3352,"Ġche":3353,"Ġhours":3354,"Ġalready":3355,"Ġbig":3356,"Ġgod":3357,"acific":3358,"klah":3359,"uese":3360,"Al":3361,"ĠBron":3362,"Ġaltern":3363,"Ġoriginally":3364,"aded":3365,"put":3366,"Ġpric":3367,"Ġbattle":3368,"otton":3369,"quar":3370,"Ġclimate":3371,"Ġhot":3372,"Ġgreen":3373,"Ġfront":3374,"Ġdefined":3375,"Ġdou":3376,"Ġbreak":3377,"aled":3378,"Ġsoftware":3379,"ĠHenry":3380,"Ġreject":3381,"Ġmainly":3382,"sych":3383,"Ġcounter":3384,"Ġinte":3385,"Ġofficially":3386,"Ġsummer":3387,"aring":3388,"ronic":3389,"Ġliterature":3390,"Ġfocus":3391,"rish":3392,"anj":3393,"ĠCor":3394,"Ġrace":3395,"Ġchanged":3396,"Ġinh":3397,"Ġworldwide":3398,"arsh":3399,"Ġcarri":3400,"board":3401,"eth":3402,"Ġreason":3403,"ĠGaddafi":3404,"izations":3405,"Ġord":3406,"Ġtowards":3407,"rang":3408,"ĠWe":3409,"ĠMont":3410,"mission":3411,"Ġeffic":3412,"encies":3413,"Ġsquare":3414,"Ġspok":3415,"ĠBer":3416,"Ġstreng":3417,"Ġ188":3418,"pr":3419,"ĠHall":3420,"iance":3421,"Ġgoing":3422,"Ġfr":3423,"iger":3424,"irl":3425,"Ġconflict":3426,"estival":3427,"ĠYale":3428,"tained":3429,"ĠAtlantic":3430,"eph":3431,"ĠRec":3432,"ĠAssociation":3433,"ging":3434,"Ġleader":3435,"Ġste":3436,"Ġmov":3437,"atures":3438,"izing":3439,"Ġparties":3440,"ternet":3441,"Ġ-":3442,"Ġpaper":3443,"Ġindustrial":3444,"klahoma":3445,"Ġorganization":3446,"Ġranked":3447,"70":3448,"Ġ28":3449,"Ġbelow":3450,"Ġstri":3451,"uns":3452,"ĠRober":3453,"ĠSupreme":3454,"aily":3455,"Ġhundred":3456,"ĠRom":3457,"Ġmiddle":3458,"Ġpoor":3459,"Ġpattern":3460,"23":3461,"Ġstations":3462,"Ġcommand":3463,"Ġnuc":3464,"ĠFre":3465,"Ġteac":3466,"ĠSecond":3467,"Ġmusical":3468,"Ġpreviously":3469,"ĠMusic":3470,"ĠSlav":3471,"which":3472,"Ġincorpor":3473,"Ġill":3474,"Ġhunting":3475,"pped":3476,"Ġ2003":3477,"Ġbetter":3478,"lers":3479,"Ġcool":3480,"iang":3481,"Ġheavy":3482,"Ġhumans":3483,"Ġbank":3484,"Ġcome":3485,"kn":3486,"ĠIf":3487,"ES":3488,"phas":3489,"Ġquick":3490,"Ġsal":3491,"ĠConstitution":3492,"Ġconcent":3493,"che":3494,"Ġproducts":3495,"Ġu":3496,"rative":3497,"ĠPacific":3498,"Ġbrother":3499,"western":3500,"Ġdrug":3501,"Ġagricult":3502,"Ġsense":3503,"Ġplaced":3504,"ĠÂ£":3505,"Ġideas":3506,"ĠCounty":3507,"ĠIII":3508,"ellig":3509,"xim":3510,"Ġcateg":3511,"Ġchurches":3512,"Ġft":3513,"Ġbecoming":3514,"ĠSaint":3515,"Ġoldest":3516,"TV":3517,"Ġinfect":3518,"Ġlaunched":3519,"igenous":3520,"Ã¼":3521,"Ġcannot":3522,"Ġclaimed":3523,"mier":3524,"ening":3525,"ube":3526,"Ġsources":3527,"Ġselect":3528,"Ġleague":3529,"Ġaward":3530,"ĠJes":3531,"Ġcampus":3532,"vin":3533,"ĠAc":3534,"Ġcopy":3535,"Ġyoung":3536,"ĠNot":3537,"ĠLaw":3538,"ĠRed":3539,"mon":3540,"Ġtry":3541,"Ġconditions":3542,"ĠVirgin":3543,"Ġcurrently":3544,"tee":3545,"Ġmiles":3546,"ford":3547,"ĠAlbert":3548,"Ġmach":3549,"Ġunits":3550,"Ġwhom":3551,"risis":3552,"ĠMal":3553,"aut":3554,"Ġgold":3555,"ĠSea":3556,"Ġexpansion":3557,"osing":3558,"Ġec":3559,"cluding":3560,"ĠDist":3561,"Ġended":3562,"onic":3563,"Ġindividuals":3564,"rogen":3565,"Ġcreate":3566,"Ġproposed":3567,"ĠDepartment":3568,"ĠCyp":3569,"oses":3570,"Ġvia":3571,"Ġability":3572,"oon":3573,"ĠAlso":3574,"Ġvalue":3575,"Ġnames":3576,"Ġcontrast":3577,"ito":3578,"Ġfemale":3579,"Ġsigned":3580,"Ġgranted":3581,"Ġavo":3582,"Ġperformed":3583,"Ġpopulations":3584,"iot":3585,"ously":3586,"Ġprovince":3587,"ĠMinister":3588,"Ġcoin":3589,"Ġconcer":3590,"Ġdip":3591,"enth":3592,"Ġpresence":3593,"Ġhon":3594,"ĠiP":3595,"sen":3596,"Ġwides":3597,"Ġfif":3598,"Ġfell":3599,"ĠThat":3600,"ouston":3601,"Ġnative":3602,"Ġfight":3603,"Ġ26":3604,"uda":3605,"Ġevolution":3606,"rival":3607,"Ġactivities":3608,"ĠNations":3609,"rupt":3610,"Ġdate":3611,"ĠPle":3612,"ĠDar":3613,"gree":3614,"van":3615,"ĠUnder":3616,"Ġ2001":3617,"ĠBut":3618,"Ġimmediate":3619,"ĠInstitute":3620,"ĠLouis":3621,"ĠStud":3622,"ĠBec":3623,"Ġchemical":3624,"90":3625,"ception":3626,"anta":3627,"Ġdiss":3628,"Ġjour":3629,"ech":3630,"pread":3631,"Ġcollege":3632,"ĠOrthodox":3633,"onom":3634,"ĠJos":3635,"Ġsurface":3636,"ĠConf":3637,"Ġextreme":3638,"Ġsoldiers":3639,"Ġinvasion":3640,"Ġmosa":3641,"ieval":3642,"Ġrevolution":3643,"Ġkeep":3644,"ĠWindows":3645,"Ġbooks":3646,"Ġproduct":3647,"Ġlikely":3648,"ĠSouthern":3649,"Ġgive":3650,"Ġ27":3651,"Ġwhole":3652,"ny":3653,"Ġblood":3654,"Ġgrew":3655,"iny":3656,"Ġappointed":3657,"ĠBill":3658,"Ġglobal":3659,"Ġterritories":3660,"ĠFin":3661,"ĠCanadian":3662,"Ġsongs":3663,"ĠMelbourne":3664,"ÉĻ":3665,"Ġsequ":3666,"Ġlog":3667,"embly":3668,"Ġcall":3669,"ferred":3670,"Ġmarked":3671,"Ġborn":3672,"Ġquality":3673,"ĠBecause":3674,"ĠPat":3675,"Ġcarry":3676,"Ġfailed":3677,"ĠMadonna":3678,"ĠNet":3679,"ĠLiber":3680,"Ġpal":3681,"Ġrat":3682,"century":3683,"mitted":3684,".:":3685,"Ġgra":3686,"Ġfilms":3687,"Wh":3688,"Ġcopper":3689,"Ġbehind":3690,"inary":3691,"entation":3692,"Ġprob":3693,"Ġprograms":3694,"Ġeat":3695,"ĠTimes":3696,"Ġdegree":3697,"astic":3698,"Ġspoken":3699,"Ġdecided":3700,"fit":3701,"ĠCap":3702,"ension":3703,"Ġantib":3704,"Ġfriends":3705,"After":3706,"ĠSim":3707,"Ġattacks":3708,"Ġidea":3709,"Ġissue":3710,"ĠTreat":3711,"Ġdoct":3712,"Ġconserv":3713,"uate":3714,"isenh":3715,"Ġspir":3716,"iles":3717,"Ġrang":3718,"Ġwave":3719,"Ġcompared":3720,"Ġquestion":3721,"Ġeas":3722,"Ġgas":3723,"ements":3724,"ĠNorthern":3725,"Ġprin":3726,"Ġ60":3727,"Ġgrowing":3728,"off":3729,"Ġbit":3730,"Ġconstruct":3731,"oples":3732,"ĠOklahoma":3733,"Ġresidents":3734,"Ġwidespread":3735,"Ġinn":3736,"ĠDu":3737,"Ġnoted":3738,"Ġemphas":3739,"Ġdevices":3740,"Ġagreement":3741,"Ġproblem":3742,"mond":3743,"atre":3744,"Ġbasis":3745,"isenhower":3746,"itness":3747,"Ġfamilies":3748,"Ġopt":3749,"ĠMich":3750,"Ġdecre":3751,"yond":3752,"Ġwriting":3753,"Ġclubs":3754,"icle":3755,"umn":3756,"Ġshare":3757,"Ġtherefore":3758,"Ġcotton":3759,"Ġhelped":3760,"ald":3761,"ĠUnivers":3762,"Ġnewsp":3763,"Ġdivision":3764,"ĠPortuguese":3765,"ĠEarth":3766,"ying":3767,"itude":3768,"Ġgained":3769,"ĠPolish":3770,"Ġpurch":3771,"Ġofficials":3772,"Ġdiscovered":3773,"Ġnations":3774,"Ġreduced":3775,"Ġcontract":3776,"racy":3777,"Ġconsists":3778,"Ġmatter":3779,"ography":3780,"ĠSum":3781,"Ġcompetition":3782,"Ġaim":3783,"icago":3784,"pton":3785,"Ġacadem":3786,"Ġsolar":3787,"Ġargued":3788,"ĠMor":3789,"ivity":3790,"ĠAnother":3791,"Ġcontains":3792,"Ġens":3793,"ĠPeople":3794,"CA":3795,"Ã³":3796,"Ã¶":3797,"cel":3798,"ĠWars":3799,"Ġquickly":3800,"Ġkil":3801,"Ġmotor":3802,"Americ":3803,"ĠKerry":3804,"ieties":3805,"rical":3806,"Ġsales":3807,"Ġinitially":3808,"Ġfeature":3809,"ĠFranc":3810,"anc":3811,"Ġfle":3812,"ayed":3813,"ĠGovernment":3814,"fall":3815,"Ġmetal":3816,"Ġapplied":3817,"istry":3818,"Ġdefeated":3819,"Ġhouses":3820,"igation":3821,"ĠKorea":3822,"ises":3823,"Ġpsych":3824,"ext":3825,"ĠThomas":3826,"Ġox":3827,"oking":3828,"ED":3829,"Ġperman":3830,"Ġagreed":3831,"Ġlic":3832,"Ġbeg":3833,"ĠMc":3834,"uls":3835,"Ġheart":3836,"500":3837,"ĠBay":3838,"isted":3839,"Ġtraining":3840,"Ġsaf":3841,"Ġlink":3842,"Ġmathem":3843,"Ġbelief":3844,"ĠSal":3845,"ider":3846,"resp":3847,"Ġnotable":3848,"Ġmedical":3849,"Ġrespectively":3850,"ĠHouston":3851,"Ġfourth":3852,"Ġruled":3853,"Ġhit":3854,"olk":3855,"ĠDig":3856,"Ġpeoples":3857,"ĠQu":3858,"Ġappeared":3859,"ĠPremier":3860,"ĠMore":3861,"Ġformal":3862,"Ġquar":3863,"ĠRobert":3864,"ĠDiv":3865,"Ġjoined":3866,"Ġdigital":3867,"Ġlands":3868,"retary":3869,"eign":3870,"edic":3871,"than":3872,"Ġwinter":3873,"Ġessential":3874,"itual":3875,"ĠChicago":3876,"Ġcontinue":3877,"Ġadditional":3878,"Ġori":3879,"Ġimpact":3880,"Ġreign":3881,"ĠMag":3882,"ĠDie":3883,"Ġcontent":3884,"ĠDavid":3885,"Ġrare":3886,"azi":3887,"Ġcontemporary":3888,"ested":3889,"Ġresistance":3890,"lar":3891,"ita":3892,"Ġball":3893,"ĠFort":3894,"Ġsam":3895,"ĠLu":3896,"antine":3897,"ground":3898,"Ġ80":3899,"Ġbrain":3900,"Ġcompleted":3901,"ault":3902,"nd":3903,"Ġimplement":3904,"Ġimprove":3905,"ĠAvenue":3906,"Ġadoles":3907,"Ġ2002":3908,"Ġboard":3909,"Ġheadquar":3910,"ĠMP":3911,"ĠHy":3912,"Ġexpanded":3913,"hips":3914,"orial":3915,"ump":3916,"ĠRichard":3917,"Ġdistrict":3918,"Ġbur":3919,"oints":3920,"ĠZe":3921,"Ġmultiple":3922,"joy":3923,"erson":3924,"Ġcompos":3925,"Ġtrue":3926,"Ġrepublic":3927,"Ġminority":3928,"etroit":3929,"Ġthousands":3930,"kish":3931,"ĠForce":3932,"known":3933,"ĠEisenhower":3934,"Ġmixed":3935,"Ġlib":3936,"use":3937,"ĠGreen":3938,"22":3939,"ari":3940,"Ġcompar":3941,"ĠIrish":3942,"Ġvoc":3943,"Ġolder":3944,"Ġincreasingly":3945,"Ġachieve":3946,"There":3947,"Ġstore":3948,"Ġdowntown":3949,"gn":3950,"Ġplaying":3951,"Ġpromot":3952,"Ġwant":3953,"ĠPlym":3954,"force":3955,"ĠImperial":3956,"ua":3957,"Ġadult":3958,"cks":3959,"ading":3960,"Ġdecision":3961,"inated":3962,"overeign":3963,"Ġtreaty":3964,"Ġmethods":3965,"itzer":3966,"hedral":3967,"Ġdisease":3968,"ĠCons":3969,"Ġserve":3970,"Ġaudio":3971,"olin":3972,"Ġenough":3973,"Ġprovin":3974,"Ġantenna":3975,"ply":3976,"ĠTu":3977,"Ġvary":3978,"Ġmill":3979,"Ġtex":3980,"bed":3981,"oke":3982,"Ġsus":3983,"iami":3984,"sk":3985,"eder":3986,"Ġcrisis":3987,"Ġdestroyed":3988,"fect":3989,"za":3990,"Ġbul":3991,"ĠFlor":3992,"cles":3993,"ishing":3994,"Ġpun":3995,"ĠSir":3996,"Ġquant":3997,"ĠOlympic":3998,"pass":3999,"Ġwealth":4000,"back":4001,"Ġbeyond":4002,"Ġscript":4003,"Ġresponsible":4004,"Ġdifferences":4005,"Ġprominent":4006,"Ġcells":4007,"ĠSystem":4008,"24":4009,"Ġcod":4010,"ĠSen":4011,"ĠCivil":4012,"ĠId":4013,"Ġefforts":4014,"uit":4015,"ĠAsian":4016,"Ġast":4017,"Ġdro":4018,"ĠMing":4019,"Ġexhib":4020,"Ġresour":4021,"Ġenjoy":4022,"Ġissues":4023,"Ġmagn":4024,"ĠProtestant":4025,"wer":4026,"adel":4027,"ĠInter":4028,"change":4029,"ĠPC":4030,"ĠBronx":4031,"ming":4032,"Ġtaking":4033,"Ġremaining":4034,"Ġour":4035,"Ġbasic":4036,"Ġbacteria":4037,"ils":4038,"Ġfrequently":4039,"respond":4040,"rine":4041,"iforn":4042,"ĠJesus":4043,".)":4044,"Ġlot":4045,"Ġresults":4046,"ĠParliament":4047,"ĠPalace":4048,"ĠDistrict":4049,"Ġsen":4050,"Ġreve":4051,"Ġyet":4052,"ĠCommon":4053,"ĠSuper":4054,"ĠMil":4055,"ĠTreaty":4056,"Ġeffects":4057,"Ġwait":4058,"Ġbring":4059,"ĠBu":4060,"ĠPri":4061,"unicip":4062,"Ġcollection":4063,"ensity":4064,"Ġweap":4065,"Ġfeel":4066,"Ġwrest":4067,"Ġexistence":4068,"Ġinstruments":4069,"ĠAC":4070,"Ġvon":4071,"Ġformat":4072,"Ġprovides":4073,"Ġbound":4074,"ĠOver":4075,"Ġheav":4076,"Ġrecently":4077,"Ġwars":4078,"ĠArmenian":4079,"Ġmm":4080,"Ġrain":4081,"field":4082,"ĠIslands":4083,"Ġmemory":4084,"ĠHellen":4085,"irection":4086,"Ġtransition":4087,"Ġapproach":4088,"Ġcustom":4089,"Ġlength":4090,"Ġinsects":4091,"75":4092,"Ġlived":4093,"oud":4094,"Ġask":4095,"ĠRh":4096,"Ġexclus":4097,"Ġcreation":4098,"ĠClass":4099,"Ġpossess":4100,"Ġrisk":4101,"rovers":4102,"Ġreserv":4103,"Ġtend":4104,"Ġdespite":4105,"Ġ90":4106,"Ġdecline":4107,"Ġdetermin":4108,"Ġchief":4109,"Ġderived":4110,"Ġintegr":4111,"ev":4112,"Ġwoman":4113,"ĠMah":4114,"Ġallowing":4115,"Ġpoly":4116,"gg":4117,"Ġvote":4118,"Ġpressure":4119,"Ġpoll":4120,"ĠFootball":4121,"outheast":4122,"Ġassum":4123,"Ġcard":4124,"asc":4125,"Ġrepe":4126,"greg":4127,"Ġsettlement":4128,"ĠPrussia":4129,"Ġstage":4130,"Ġcarried":4131,"BM":4132,"Ġidentified":4133,"ĠPortugal":4134,"Ġcand":4135,"Ġgain":4136,"Ġwithd":4137,"Ġraised":4138,"Ġallows":4139,"Ġvictory":4140,"ĠPlease":4141,"Ġanthrop":4142,"Ġlimit":4143,"inet":4144,"aker":4145,"Ġcritical":4146,"Ġpractices":4147,"Ġdance":4148,"Ġnine":4149,"Ġsought":4150,"Ġhar":4151,"ĠAirport":4152,"Ġmom":4153,"Ġmut":4154,"Ġreview":4155,"ĠiPod":4156,"ada":4157,"ortun":4158,"Ġrules":4159,"Ġdistingu":4160,"Ġpeak":4161,"Ġgenetic":4162,"ĠBoth":4163,"ellect":4164,"Ġcomposed":4165,"ĠPhilip":4166,"where":4167,"ĠÃ":4168,"Ġaspect":4169,"allen":4170,"Ġqual":4171,"Ġmaterials":4172,"box":4173,"edom":4174,"Ġago":4175,"ucson":4176,"lom":4177,"Ġ...":4178,"Ġnar":4179,"Ġblock":4180,"Ġcorrespond":4181,"Ġsecurity":4182,"ĠHol":4183,"ospital":4184,"burg":4185,"ailed":4186,"Ġserious":4187,"ulated":4188,"ĠDNA":4189,"Ġmale":4190,"ĠMass":4191,"Ġmeant":4192,"ees":4193,"ĠHill":4194,"Ġissued":4195,"ĠTibetan":4196,"Ġcounty":4197,"Ġlocation":4198,"Ġshows":4199,"Ġmagaz":4200,"Ġearthqu":4201,"ĠDetroit":4202,"Ġplaces":4203,"Ġflag":4204,"orks":4205,"Ġtemperatures":4206,"ifornia":4207,"Ġcast":4208,"Ġoffered":4209,"aught":4210,"Ġprogress":4211,"ĠScot":4212,"more":4213,"Ġnob":4214,"Ġcultures":4215,"itzerland":4216,"oe":4217,"ĠBal":4218,"Ġcourse":4219,"such":4220,"ĠAges":4221,"Ġsure":4222,"Ġhere":4223,"Ġaccepted":4224,"arct":4225,"Ġmission":4226,"Ġdeep":4227,"Ġincome":4228,"Ġnovel":4229,"Ġcolonies":4230,"Ġrecognized":4231,"Ġut":4232,"Ġcoup":4233,"ĠMarsh":4234,"Ġshown":4235,"Ġmetropolitan":4236,"ĠServ":4237,"ĠBest":4238,"Ġstory":4239,"Ġattrib":4240,"Ġoperating":4241,"Ġrunning":4242,"Ġfaith":4243,"Ġdeveloping":4244,"Ġelement":4245,"ĠBuddhism":4246,"Ġexecutive":4247,"Ġcode":4248,"Ġmarried":4249,"\"),":4250,"ocks":4251,"ĠPop":4252,"SA":4253,"Ġuran":4254,"Ġpath":4255,"ĠTer":4256,"ĠRock":4257,"ĠDiego":4258,"Ġadj":4259,"Ġdoll":4260,"ĠTwo":4261,"Ġships":4262,"ĠBraz":4263,"ately":4264,"ĠAsh":4265,"Ġorganizations":4266,"Ġanimal":4267,"ampton":4268,"Ġcontrovers":4269,"Ġ1940":4270,"Ġgiving":4271,"ables":4272,"elled":4273,"lectric":4274,"Ġpret":4275,"iations":4276,"Ġsun":4277,"Ġinternal":4278,"Ġmicro":4279,"Ġmob":4280,"Ġrefused":4281,"igrants":4282,"elt":4283,"Ġsubs":4284,"Ġencoura":4285,"ĠCD":4286,"ĠNor":4287,"Ġstarting":4288,"Ġproperty":4289,"ĠDelhi":4290,"bre":4291,"state":4292,"amer":4293,"oration":4294,"cluded":4295,"Ġparliament":4296,"Un":4297,"Ġsovereign":4298,"ĠChampions":4299,"Ġpark":4300,"Ġattempted":4301,"Ġcombined":4302,"Ġcapacity":4303,"ĠAcadem":4304,"lies":4305,"Ġsac":4306,"icine":4307,"aches":4308,"Ġsupply":4309,"rect":4310,"uting":4311,"Ġintended":4312,"Ġworked":4313,"Ġfinally":4314,"Ġdefinition":4315,"Ġmakes":4316,"Ġmountain":4317,"ĠSociety":4318,"omm":4319,"Ġextended":4320,"ĠQing":4321,"Ġhor":4322,"Ġoccupied":4323,"la":4324,"nel":4325,"oned":4326,"Ġcru":4327,"Ġinstance":4328,"Ġplayer":4329,"insula":4330,"Ġprofile":4331,"alle":4332,"Ġvill":4333,"Ġemerged":4334,"Ġuranium":4335,"och":4336,"Ġfort":4337,"tered":4338,"rick":4339,"ĠCommit":4340,"Ġneighborhood":4341,"Ġinteract":4342,"Ġeffective":4343,"Ġcerem":4344,"yan":4345,"Ġsnow":4346,"eds":4347,"olid":4348,"iano":4349,"Ġcontact":4350,"uris":4351,"Ġindigenous":4352,"ĠByz":4353,"Ġcolonial":4354,"Ġimportance":4355,"anjing":4356,"FA":4357,"Ġrates":4358,"annel":4359,"rad":4360,"Ġpan":4361,"Ġreduce":4362,"29":4363,"Ġdecades":4364,"ographic":4365,"Ġ180":4366,"Ġsuffered":4367,"iff":4368,"ĠOff":4369,"ĠDef":4370,"Ġdone":4371,"ĠSm":4372,"Ġadvant":4373,"adelph":4374,"At":4375,"Ġpurpose":4376,"Ġnuclear":4377,"etry":4378,"ĠJe":4379,"Ġentered":4380,"ĠPope":4381,"iques":4382,"ĠHel":4383,"iant":4384,"othing":4385,"eks":4386,"iary":4387,"ett":4388,"Ġtrack":4389,"Ġreasons":4390,"ĠThus":4391,"Ġracial":4392,"krit":4393,"Ġfarm":4394,"abad":4395,"Ġsimply":4396,"Ġ1930":4397,"oved":4398,"rd":4399,"ĠLord":4400,"adelphia":4401,"ĠTrans":4402,"rived":4403,"ibly":4404,"ĠSever":4405,"elligence":4406,"American":4407,"ĠPlymouth":4408,"gal":4409,"Ġplanned":4410,"Ġcomment":4411,"Ġmatch":4412,"Ġfeatured":4413,"Ġvirt":4414,"osure":4415,"Ġ500":4416,"Ġesc":4417,"ĠSwitzerland":4418,"Ġwild":4419,"ĠPlay":4420,"Ġrepresented":4421,"Ġletter":4422,"It":4423,"ĠDay":4424,"ocracy":4425,"Ġofficers":4426,"Ġtowns":4427,"ĠAlexander":4428,"Ġimperial":4429,"Ġopposed":4430,"Ġturned":4431,"Ġdialog":4432,"35":4433,"Ġaid":4434,"Ġfix":4435,"ĠNiger":4436,"Ġbelong":4437,"ĠChristianity":4438,"ĠBas":4439,"tainment":4440,"ĠBCE":4441,"ĠCatal":4442,"ceived":4443,"ĠCharl":4444,"Ġestablishment":4445,"ban":4446,"Ġelections":4447,"Ġzinc":4448,"aging":4449,"Ġwear":4450,"ĠTucson":4451,"Ġslow":4452,"osis":4453,"Ġmathemat":4454,"ĠArmenia":4455,"Ġdrive":4456,"ĠDell":4457,"Ġminim":4458,"Ġcaptured":4459,"ville":4460,"ĠMet":4461,"rief":4462,"Ġunique":4463,"Ġrecover":4464,"Ġstandards":4465,"Ġdefeat":4466,"arent":4467,"ĠJust":4468,"Ġintellect":4469,"ĠDespite":4470,"ĠUniversal":4471,"Ġsector":4472,"Ġgrand":4473,"Ġdepartment":4474,"Ġspl":4475,"Ġspeech":4476,"ĠInt":4477,"Ġlabor":4478,"lighten":4479,"ĠCalifornia":4480,"verse":4481,"Ġexpected":4482,"Ġteacher":4483,"SR":4484,"olf":4485,"ĠMiami":4486,"ription":4487,"Ġgoal":4488,"zech":4489,"Ġhousehold":4490,"ĠEgyptian":4491,"Ġachieved":4492,"Ġweeks":4493,"Ġgreatly":4494,"ĠPoland":4495,"ceeded":4496,"ĠFlorida":4497,"ĠFestival":4498,"oughly":4499,"Ġdialects":4500,"Ġprobably":4501,"aur":4502,"Ġang":4503,"Ġdraw":4504,"Ġextensive":4505,"Ġcontrolled":4506,"Ġinfluential":4507,"Ġmeeting":4508,"iar":4509,"rates":4510,"Ġice":4511,"otes":4512,"Ġ1991":4513,"Ġmaintained":4514,"Ar":4515,"ye":4516,"including":4517,"itch":4518,"ĠCast":4519,"lightenment":4520,"Ġrelay":4521,"Ġgovernments":4522,"Ġmuseum":4523,"Ġinterpret":4524,"itors":4525,"Ġthings":4526,"Ġsex":4527,"ĠAustria":4528,"ares":4529,"Ġ29":4530,"formation":4531,"Ġdirection":4532,"Ġattention":4533,"Ġexperien":4534,"Ġflu":4535,"Ġstrateg":4536,"ymn":4537,"ĠValenc":4538,"Ġgenes":4539,"ĠTechn":4540,"Ġsubsequent":4541,"Ġmention":4542,"intend":4543,"fficient":4544,"Ġtribes":4545,"Ġlif":4546,"Ġrot":4547,"Ġdecade":4548,"Ġmaxim":4549,"Ġsecondary":4550,"Ġbehavior":4551,"Ġstrength":4552,"cript":4553,"ĠAv":4554,"Ġlearning":4555,"claim":4556,"ella":4557,"Ġconstant":4558,"Ġsubstant":4559,"Ġhapp":4560,"ĠTheir":4561,"ĠOrgan":4562,"Ġopposition":4563,"ĠNA":4564,"Ġcarbon":4565,"Ġrecording":4566,"Ġorganisms":4567,"Ġcandid":4568,"Ġroad":4569,"Ġgreatest":4570,"ĠAustralian":4571,"Ġexamples":4572,"Ġtexts":4573,"illed":4574,"Ġdamage":4575,"rations":4576,"zh":4577,"ĠOper":4578,"Ġnews":4579,"Ġshowed":4580,"byter":4581,"Ġregarded":4582,"Ġsettled":4583,"27":4584,"tical":4585,"Ġartist":4586,"Ġsevere":4587,"Ġbal":4588,"Ġconsequ":4589,"Ġoverall":4590,"Ġriver":4591,"ĠRecords":4592,"Ġ45":4593,"onian":4594,"Ġhop":4595,"Ġarrang":4596,"Ġcolle":4597,"ĠGreeks":4598,"Ġopportun":4599,"Ġabsor":4600,"usion":4601,"sec":4602,"Ġsignificantly":4603,"Ġvolun":4604,"ĠDarwin":4605,"Ġgirl":4606,"Ġlabour":4607,"Ġappearance":4608,"Ġpermanent":4609,"den":4610,"ero":4611,"Ġways":4612,"ĠLED":4613,"Ġtoward":4614,"ully":4615,"Ġfactors":4616,"Ġstre":4617,"Ġmole":4618,"Ġheat":4619,"Ġattend":4620,"ĠTele":4621,"Ġauthorities":4622,"riage":4623,"Ġpoints":4624,"osen":4625,"ĠFollowing":4626,"Ġ1920":4627,"teen":4628,"ĠPhiladelphia":4629,"ĠCa":4630,"Ġsimple":4631,"pre":4632,"ĠHi":4633,"Ġsection":4634,"ĠOcean":4635,"ĠCommission":4636,"Ġbelieve":4637,"Ġprotection":4638,"Ġsan":4639,"Ġphen":4640,"Ġpeer":4641,"Ġ70":4642,"Ġpap":4643,"oslav":4644,"ĠFred":4645,"\").":4646,"ologists":4647,"Ġcorpor":4648,"ĠSeveral":4649,"dered":4650,"Ġmedieval":4651,"48":4652,"á¹":4653,"Ġdaily":4654,"Ġaband":4655,"Ġminister":4656,"Ġstructures":4657,"ĠHistor":4658,"Ġmovements":4659,"ĠBurke":4660,"Ġcomponents":4661,"ĠTex":4662,"ifying":4663,"mark":4664,"Ġclosely":4665,"ĠBrazil":4666,"BI":4667,"miss":4668,"wan":4669,"Ä«":4670,"Ġdead":4671,"ranean":4672,"gency":4673,"Ġancestry":4674,"ĠSeattle":4675,"Ġtraditions":4676,"Ġparents":4677,"ĠVirginia":4678,"with":4679,"Ġcouncil":4680,"Ġelim":4681,"sole":4682,"aska":4683,"Ġstar":4684,"ĠLater":4685,"Ġcourts":4686,"Ġdominant":4687,"ini":4688,"ederation":4689,"ruption":4690,"ĠApoll":4691,"Ġacademic":4692,"rich":4693,"Ġsty":4694,"Ġseasons":4695,"Ġpron":4696,"Ġgradually":4697,"Be":4698,"tra":4699,"ĠInternet":4700,"Ġvide":4701,"Ġ31":4702,"Ġmanagement":4703,"ST":4704,"ĠTV":4705,"ĠMem":4706,"Ġfeed":4707,"Ġcensus":4708,"Ġpie":4709,"ysis":4710,"Ġpra":4711,"attan":4712,"Ġnomin":4713,"aph":4714,"26":4715,"isters":4716,"Ġlamp":4717,"ender":4718,"Ġadvanced":4719,"Ġiron":4720,"const":4721,"ĠChristians":4722,"Ġmunicip":4723,"ĠNanjing":4724,"Ġvast":4725,"ĠAntarct":4726,"Ġnecessary":4727,"ĠFA":4728,"Ġroute":4729,"Ġgot":4730,"ĠSecretary":4731,"intendo":4732,"Ġtried":4733,"orage":4734,"vey":4735,"Ġadministrative":4736,"itar":4737,"amic":4738,"uty":4739,"ĠLod":4740,"ael":4741,"stream":4742,"ĠTri":4743,"Ġnewly":4744,"Ġactually":4745,"Ġcompletely":4746,"Ġslaves":4747,"Ġideal":4748,"Ġearthquake":4749,"ein":4750,"Ġbeer":4751,"Ġevolved":4752,"Ġtreatment":4753,"Ġalternative":4754,"Ġinhabit":4755,"DP":4756,"itable":4757,"arc":4758,"Ġorganized":4759,"Ġdevice":4760,"Ġresources":4761,"ilding":4762,"Ġsubsequently":4763,"ĠSa":4764,"rising":4765,"iterranean":4766,"100":4767,"yth":4768,"reg":4769,"ĠMid":4770,"Ġarrest":4771,"Ġresident":4772,"ĠUSB":4773,"PA":4774,"Ġreach":4775,"ĠPak":4776,"ĠAdd":4777,"Ġhistoric":4778,"Ġcharacteristics":4779,"ĠAcademy":4780,"Ġordered":4781,"Ġfields":4782,"Ġnut":4783,"ishop":4784,"rugg":4785,"haps":4786,"reen":4787,"ĠDomin":4788,"Ġpolitics":4789,"Ġowned":4790,"ĠWhitehead":4791,"Ġmandolin":4792,"New":4793,"inate":4794,"Ġsport":4795,"Ġple":4796,"itionally":4797,"Ġinitial":4798,"ĠCzech":4799,"ĠQuran":4800,"Ġsynthe":4801,"Ġfully":4802,"Ġmind":4803,"Ġexerc":4804,"Ġunit":4805,"Ġsignal":4806,"Ġmeasure":4807,"Ġunderstanding":4808,"21":4809,"oral":4810,"aria":4811,"Ġarts":4812,"Ġobjects":4813,"Ġnegot":4814,"Ġorientation":4815,"ĠFurther":4816,"ielberg":4817,"Ġbrief":4818,"Ġflight":4819,"Ġrefers":4820,"Ġapplication":4821,"Ġstores":4822,"Ġimpl":4823,"ensions":4824,"Ġencod":4825,"Ġliterary":4826,"Ġsituation":4827,"ĠCommittee":4828,"45":4829,"Ġisol":4830,"Ġvalues":4831,"alia":4832,"ĠOf":4833,"ĠEdward":4834,"ĠEstonia":4835,"Ġsurrounding":4836,"ĠMart":4837,"Ġchallen":4838,"Ġteach":4839,"Ġequal":4840,"Ġportion":4841,"icon":4842,"ĠGroup":4843,"Ġwife":4844,"Ġhyp":4845,"ĠHay":4846,"ĠFore":4847,"duc":4848,"Ġsatell":4849,"wealth":4850,"Ġcreating":4851,"Ġfan":4852,"oday":4853,"Ġshared":4854,"Ġ1997":4855,"ĠColumb":4856,"ĠMountains":4857,"BA":4858,"pired":4859,"ĠLee":4860,"ĠGold":4861,"Ġplans":4862,"Ġformation":4863,"99":4864,"Ġremoved":4865,"ĠIra":4866,"ulate":4867,"Ġstreet":4868,"ĠNintendo":4869,"ipment":4870,"Ġchart":4871,"Ġdepend":4872,"Ġexisting":4873,"ammad":4874,"Ġdominated":4875,"Ġapplications":4876,"oz":4877,"anskrit":4878,"Ġ1999":4879,"Ġtitles":4880,"Ġfriend":4881,"ĠPrussian":4882,"Ġheadquarters":4883,"ĠTime":4884,"osexual":4885,"Ġextent":4886,"Ġopening":4887,"ĠScotland":4888,"Ġlin":4889,"ĠTw":4890,"ulg":4891,"Ġextin":4892,"ennes":4893,"Ġdrink":4894,"By":4895,"orters":4896,"ĠAg":4897,"ĠSol":4898,"Ġexpress":4899,"ĠRichmond":4900,"iest":4901,"ĠRad":4902,"Ġnotably":4903,"Ġimage":4904,"grad":4905,"Ġelse":4906,"Ġtwent":4907,"raction":4908,"Ġpowerful":4909,"valu":4910,"ĠMediterranean":4911,"Ġsuggested":4912,"ĠDemocratic":4913,"ĠPersian":4914,"Ġteaching":4915,"ĠYear":4916,"Ġlingu":4917,"Ġgar":4918,"Ġsuc":4919,"itage":4920,"ĠMat":4921,"race":4922,"Ġleaving":4923,"derabad":4924,"Ġexpand":4925,"Ġround":4926,"Ġawarded":4927,"bl":4928,"ĠByzantine":4929,"inals":4930,"rif":4931,"ocated":4932,"Ġusers":4933,"ĠClub":4934,"Ġlaunch":4935,"Ġstrugg":4936,"Ġhousing":4937,"Ġrejected":4938,"Â°":4939,"ĠKar":4940,"Ġaffected":4941,"speaking":4942,"ram":4943,"Ġdra":4944,"ĠModern":4945,"Ġclasses":4946,"ĠGovernor":4947,"ĠLibya":4948,"89":4949,"ĠBank":4950,"Ġcontest":4951,"Some":4952,"ii":4953,"indu":4954,"ĠFe":4955,"Ġprote":4956,"Ġpolicies":4957,"aughter":4958,"Ġconcert":4959,"%.":4960,"76":4961,"ĠCE":4962,"Ġsomething":4963,"Ġsecret":4964,"ĠMexican":4965,"Ġnegative":4966,"According":4967,"ients":4968,"ka":4969,"ĠÎ":4970,"aser":4971,"ĠSanta":4972,"osh":4973,"Ġenem":4974,"Ġphon":4975,"Ġtechniques":4976,"ĠMuslims":4977,"Ġleadership":4978,"Ġantibiot":4979,"ĠTexas":4980,"ĠIraq":4981,"ËĲ":4982,"rence":4983,"Ġ300":4984,"Ġworkers":4985,"Ġstudio":4986,"roat":4987,"ola":4988,"Ġseg":4989,"Ġspent":4990,"Ġ1989":4991,"Ġweapons":4992,"Ġintellectual":4993,"Ġexperienced":4994,"icit":4995,"ĠGame":4996,"ails":4997,"Ġdefence":4998,"Ġairport":4999,"wing":5000,"Ġ35":5001,"mand":5002,"nes":5003,"Ġface":5004,"ĠMong":5005,"istered":5006,"ĠPen":5007,"Ġwhereas":5008,"Ġfine":5009,"umann":5010,"Ġgeneration":5011,"Ġforest":5012,"ĠTurkish":5013,"Ġupper":5014,"Ġprison":5015,"iency":5016,"grees":5017,"coh":5018,"road":5019,"earch":5020,"Ġtraffic":5021,"Ġveh":5022,"Ġletters":5023,"ĠMicro":5024,"iring":5025,"umen":5026,"ician":5027,"Ġacts":5028,"va":5029,"writ":5030,"ĠMaced":5031,"Ġcomes":5032,"abeth":5033,"ĠUp":5034,"ugoslav":5035,"Ġfeet":5036,"ĠSouthampton":5037,"Ġautonom":5038,"Ġincorporated":5039,"ĠJoseph":5040,"life":5041,"Ġsor":5042,"Ġclothing":5043,"Ġinstitution":5044,"Ġkept":5045,"Ġprinciple":5046,"oper":5047,"izes":5048,"ĠAnn":5049,"Ġheavily":5050,"Ġproved":5051,"Ġfloor":5052,"celona":5053,"ĠDivision":5054,"aland":5055,"ĠSk":5056,"ĠNavy":5057,"ĠWil":5058,"ropri":5059,"Ġ150":5060,"soft":5061,"ellow":5062,"Ġpopularity":5063,"ĠKorean":5064,"Ġadolesc":5065,"rm":5066,"Ġir":5067,"ĠBapt":5068,"arden":5069,"Ġglac":5070,"Ġquarter":5071,"atur":5072,"ĠTra":5073,"ĠHot":5074,"ĠChief":5075,"Ġinnov":5076,"ĠâĢ":5077,"olt":5078,"Ġwhy":5079,"Ġalone":5080,"class":5081,"Ġrecomm":5082,"Ġscale":5083,"Ġdemand":5084,"Ġrespond":5085,"Ġvisited":5086,"Ġviewed":5087,"Ġreplace":5088,"Ġfacilities":5089,"ĠCamp":5090,"ĠUk":5091,"ogen":5092,"Ġjuris":5093,"Ġjournal":5094,"band":5095,"ĠHuman":5096,"ĠSand":5097,"Ġdegrees":5098,"Ġprime":5099,"Ġdim":5100,"Ġdie":5101,"Ġonline":5102,"ĠGeorg":5103,"Ġtalk":5104,"oys":5105,"Ġcoal":5106,"ĠOrder":5107,"ĠSlavic":5108,"ga":5109,"Ġhuge":5110,"ĠPrime":5111,"Ġtraditionally":5112,"Ġequipment":5113,"Ġrapidly":5114,"Ġfigures":5115,"ĠDan":5116,"Ġspring":5117,"Ġproviding":5118,"Ġbroke":5119,"ĠXbox":5120,"ĠTai":5121,"ifically":5122,"ologies":5123,"Ġaddress":5124,"Ġlabel":5125,"Ã¨":5126,"ĠSquare":5127,"owl":5128,"ĠGoth":5129,"Ġarrived":5130,"ĠApollo":5131,"Ġstep":5132,"ĠRel":5133,"Ġroughly":5134,"Ġfought":5135,"Ġphase":5136,"ĠScience":5137,"uters":5138,"ĪĴ":5139,"comm":5140,"Ġlook":5141,"Ġpaid":5142,"Ġgene":5143,"Ġemperor":5144,"Ġautom":5145,"Ġconducted":5146,"nam":5147,"tion":5148,"Ġfifth":5149,"Ġmagazine":5150,"Ġstyles":5151,"onia":5152,"Ġsom":5153,"ĠBen":5154,"Ġdepart":5155,"Ġrural":5156,"Ġund":5157,"ĠOp":5158,"Ġvolt":5159,"ĠOffice":5160,"mir":5161,"uum":5162,"phone":5163,"Ġoccasion":5164,"Ġpresented":5165,"Ġsplit":5166,"65":5167,"Hi":5168,"called":5169,"Ġdedic":5170,"Ġrein":5171,"ĠFBI":5172,"ĠBarcelona":5173,"85":5174,"ĠYugoslav":5175,"Ġcareer":5176,"Ġpositive":5177,"Ġcommunication":5178,"senal":5179,"Ġdeclined":5180,"Ġproperties":5181,"Ġacquired":5182,"ĠDuke":5183,"Ġstaff":5184,"odies":5185,"Ġspect":5186,"Ġactual":5187,"ĠSomali":5188,"Ġreally":5189,"ĠLab":5190,"Ġexchange":5191,"Ġseem":5192,"hens":5193,"Ġoperation":5194,"Ġbranch":5195,"ias":5196,"ĠWin":5197,"ĠBuddhist":5198,"Ġultimately":5199,"Ġpack":5200,"ĠDis":5201,"Ġcharge":5202,"Ġclassified":5203,"ĠAssembly":5204,"Ġdram":5205,"Ġreforms":5206,"ĠZealand":5207,"ĠViet":5208,"ĠEnlightenment":5209,"Ġtransfer":5210,"ĠZh":5211,"Ġrenew":5212,"Ġprovinces":5213,"Ġ:":5214,"ika":5215,"Ġliberal":5216,"Ġavoid":5217,"Ġextremely":5218,"Ġpure":5219,"izabeth":5220,"ĠAnglo":5221,"ĠPakistan":5222,"Ġcas":5223,"Ġmis":5224,"eles":5225,"ĠNative":5226,"Ġproport":5227,"illa":5228,"Ġprey":5229,"Ġlisted":5230,"ĠâĢĶ":5231,"Ġmigration":5232,"lines":5233,"wise":5234,"Ġdiverse":5235,"Ġimproved":5236,"Ġsane":5237,"urai":5238,"iform":5239,"Ġoccurs":5240,"Ġdiplom":5241,"Ġinhabitants":5242,"Ġign":5243,"ĠRaj":5244,"earching":5245,"Ġdistribution":5246,"Ġimmediately":5247,"Ġtun":5248,"ety":5249,"Ġven":5250,"Ġunion":5251,"ĠPresbyter":5252,"ĠPartner":5253,"Ġphilosop":5254,"oo":5255,"Ġconv":5256,"Ġ1992":5257,"Ġfailure":5258,"Ġmanaged":5259,"chester":5260,"Ġadvantage":5261,"ĠMark":5262,"ĠCarn":5263,"Ġenvironmental":5264,"ĠRomans":5265,"ux":5266,"Ġmur":5267,"vert":5268,"Ġ1998":5269,"Ġscientists":5270,"hattan":5271,"udget":5272,"Ġslight":5273,"Ġversions":5274,"ĠIdol":5275,"ĠTito":5276,"etween":5277,"ĠVI":5278,"Ġdetermined":5279,"fl":5280,"power":5281,"Ġpros":5282,"Ġclaims":5283,"ĠValley":5284,"Ġpretend":5285,"ĠMer":5286,"Ġalle":5287,"Ġselection":5288,"Ġcontributed":5289,"Ġfrequency":5290,"Ġentirely":5291,"ĠCyprus":5292,"ĠNether":5293,"Ġconstructed":5294,"FL":5295,"ĠCensus":5296,"eld":5297,"ĠRepublican":5298,"ĠCommonwealth":5299,"95":5300,"Ġtheories":5301,"icles":5302,"ione":5303,"ĠSax":5304,"velopment":5305,"Ġ1994":5306,"ĠSpielberg":5307,"Ġrevealed":5308,"Ã§":5309,"Ġneut":5310,"ĠArts":5311,"Ġtrading":5312,"lig":5313,"Åį":5314,"ishes":5315,"resh":5316,"Ġresc":5317,"ala":5318,"Ġfast":5319,"Ġconsole":5320,"Ġslave":5321,"Ġcopyright":5322,"Ġnewspaper":5323,"Ġrival":5324,"Ġinj":5325,"Ġbands":5326,"Ġbanks":5327,"ĠKath":5328,"Ġcontinues":5329,"Ġaffil":5330,"Ġspeakers":5331,"Ġtable":5332,"ĠEach":5333,"ĠFour":5334,"Ġdepending":5335,"eed":5336,"Ġwanted":5337,"Ġnaval":5338,"Ġabol":5339,"Ġtransmit":5340,"ĠAwards":5341,"Ġoutput":5342,"issance":5343,"Ġmilit":5344,"Ġoperated":5345,"Ġequival":5346,"ĠArabic":5347,"Ġcrime":5348,"Ġsaying":5349,"Ġsites":5350,"ounded":5351,"Ġpreserv":5352,"oa":5353,"Ġstorage":5354,"Ġalcoh":5355,"Ġapparent":5356,"Ġaccur":5357,"Ġinside":5358,"Ġfunctions":5359,"eg":5360,"ĠBern":5361,"erman":5362,"Ġdirector":5363,"Ġruns":5364,"Ġsymbol":5365,"tr":5366,"Ġpet":5367,"Ġmel":5368,"Ġdark":5369,"uration":5370,"ĠNorm":5371,"udes":5372,"icted":5373,"ĠHoly":5374,"hammad":5375,"Ġchosen":5376,"Ġnice":5377,"ĠConstant":5378,"Ġemployed":5379,"Ġetc":5380,"opping":5381,"ĠAge":5382,"ĠHong":5383,"Ġdenomin":5384,"Ġhydrogen":5385,"%)":5386,"het":5387,"iting":5388,"ĠGood":5389,"ĠSwiss":5390,"Ġdetect":5391,"born":5392,"imon":5393,"Ġadapt":5394,"Ġconstitutional":5395,"ato":5396,"Ġgovernor":5397,"Ġmatches":5398,"Ġconnected":5399,"88":5400,"ĠManch":5401,"Ġzone":5402,"ĠAmong":5403,"Ġmanufacturing":5404,"33":5405,"date":5406,"orter":5407,"Ġpiano":5408,"iment":5409,"Ġdeploy":5410,"Ġcorrect":5411,"Ġclos":5412,"ashion":5413,"ĠScott":5414,"erick":5415,"Ġnearby":5416,"Ġnormal":5417,"Ġtaught":5418,"uther":5419,"Ġelectrical":5420,"Ġdoctrine":5421,"mandu":5422,"cies":5423,"rons":5424,"ĠPun":5425,"akh":5426,"Ġmeat":5427,"ĠElizabeth":5428,"Ġrelationships":5429,"ĠBBC":5430,"ĠFl":5431,"ĠWhere":5432,"ĠAz":5433,"Ġboy":5434,"Ġmarriage":5435,"Ġdiscovery":5436,"ĠMajor":5437,"Ġanalysis":5438,"BS":5439,"Ġones":5440,"ichuan":5441,"Ġcommission":5442,"Ġcold":5443,"attles":5444,"Ġvacuum":5445,"ĠMicrosoft":5446,"79":5447,"then":5448,"ĠTuvalu":5449,"oured":5450,"ĠLand":5451,"Ġ1945":5452,"Ġholds":5453,"Ġprojects":5454,"Ġdiet":5455,"Ġarmed":5456,"Ġsche":5457,"Ġactions":5458,"Ġattempts":5459,"Ġmovie":5460,"ĠHyderabad":5461,"ĠToday":5462,"Ġoffices":5463,"ĠBroad":5464,"Ġaudience":5465,"ĠBillboard":5466,"SC":5467,"Ġfer":5468,"Ġstop":5469,"Ġrequires":5470,"28":5471,"ship":5472,"Ġce":5473,"Ġdouble":5474,"Ġkilomet":5475,"34":5476,"hat":5477,"vant":5478,"Ġdates":5479,"Ġcolony":5480,"Ġcovered":5481,"Ġbiological":5482,"ennessee":5483,"Ġlives":5484,"ĠSanskrit":5485,"ĠHindu":5486,"Ġsust":5487,"Ġheight":5488,"Ġallies":5489,"Many":5490,"Ġbill":5491,"ĠPublic":5492,"ĠLake":5493,"ultan":5494,"Ġserves":5495,"Ġegg":5496,"ĠLong":5497,"ijing":5498,"ds":5499,"Ġsides":5500,"Ġyes":5501,"Ġclosed":5502,"Ġreceive":5503,"Ġexception":5504,"Ġpositions":5505,"Ġmaximum":5506,"Ġtakes":5507,"atically":5508,"Ġopin":5509,"Ġdistinction":5510,"term":5511,"Ġpredomin":5512,"icians":5513,"ĠStation":5514,"Ġmosaic":5515,"Ġcle":5516,"Ġcrop":5517,"ĠRoad":5518,"view":5519,"Ġfat":5520,"Ġretained":5521,"ocide":5522,"Ġtransform":5523,"Ġowners":5524,"Ġinspired":5525,"Ġmachine":5526,"TO":5527,"YU":5528,"Ġdaughter":5529,"ĠSub":5530,"ĠEduc":5531,"ĠFil":5532,"199":5533,"Ġretail":5534,"Ġsecular":5535,"gger":5536,"Ġdry":5537,"ĠBerm":5538,"umin":5539,"ĠKn":5540,"ĠStat":5541,"Ġbox":5542,"ĠIndepend":5543,"Ġexpressed":5544,"Ġwriters":5545,"Ġfundament":5546,"ĠAlexand":5547,"Ġconverted":5548,"Tube":5549,"Ġmoving":5550,"orders":5551,"ronom":5552,"ĠPrin":5553,"ĠSur":5554,"ĠGermans":5555,"ĠMuhammad":5556,"ĠSenate":5557,"Ġmere":5558,"Ġfreedom":5559,"Ġintroduction":5560,"Ġattacked":5561,"Ġconcerns":5562,"ĠTor":5563,"eston":5564,"Ġprem":5565,"Ġserving":5566,"Ġoriginated":5567,"Ġdescribe":5568,"ĠBook":5569,"Ġdropped":5570,"ĠInc":5571,"Ġeffectively":5572,"Ġsuccessfully":5573,"ĠMichael":5574,"Ġpil":5575,"under":5576,"ĠManhattan":5577,"64":5578,"organ":5579,"allel":5580,"iable":5581,"met":5582,"Ã±":5583,"ĠPan":5584,"Ġconcluded":5585,"Ġpropos":5586,"house":5587,"well":5588,"Ġfran":5589,"Ġmamm":5590,"achus":5591,"Ġprocesses":5592,"Ġprogramm":5593,"Ġcolleges":5594,"From":5595,"Ġcab":5596,"Ġmigr":5597,"ĠWal":5598,"acing":5599,"ĠJer":5600,"Ġcook":5601,"Ġagriculture":5602,"Ġconvers":5603,"rav":5604,"Ġoverse":5605,"nex":5606,"ĠPlan":5607,"Ġreports":5608,"Ġneighbour":5609,"ĠRail":5610,"Ġdiscip":5611,"Ġadvance":5612,"uer":5613,"Ġmess":5614,"Ġhands":5615,"ache":5616,"ĠStand":5617,"Ġoperate":5618,"Ġapproved":5619,"Ġarchitectural":5620,"warz":5621,"Ġrepeated":5622,"bn":5623,"Î±":5624,"ĠAward":5625,"Ġdisplay":5626,"Ġkingdoms":5627,"Ġfighting":5628,"Ġpict":5629,"Ġrevenue":5630,"Ġcopies":5631,"ĠResearch":5632,"Ġphenomen":5633,"do":5634,"een":5635,"uber":5636,"Ġalt":5637,"Ġweight":5638,"Ġ1996":5639,"ĠGermanic":5640,"Ġreference":5641,"Ġinvolve":5642,"Ġdemonstrated":5643,"Ġvolunte":5644,"78":5645,"know":5646,"ĠGames":5647,"Ġseems":5648,"Ġwebs":5649,"scale":5650,"Ġfelt":5651,"ĠEarly":5652,"ĠHayek":5653,"bu":5654,"atch":5655,"Ġannually":5656,"Ġcombination":5657,"ĠTurkey":5658,"Ġrose":5659,"Ġsimpl":5660,"Ġpromoted":5661,"Ġfavour":5662,"Ġcredit":5663,"iy":5664,"ses":5665,"Ġscene":5666,"Ġperiods":5667,"Ġapart":5668,"Ġmeasures":5669,"Ġconsiderable":5670,"Although":5671,"'ve":5672,"othes":5673,"Ġformally":5674,"Ġfocused":5675,"ĠAshken":5676,"Ġtree":5677,"ĠAri":5678,"ĠSearching":5679,"Ġhistorians":5680,"Ġassociation":5681,"Ġcollabor":5682,"Ġdedicated":5683,"ĠNetherlands":5684,"EC":5685,"zy":5686,"ĠSo":5687,"iana":5688,"Ġjoint":5689,"Ġlisten":5690,"Ġprecip":5691,"Ġjurisd":5692,"ĠKathmandu":5693,"Ġmad":5694,"Ġharm":5695,"ĠStadium":5696,"Ġ1988":5697,"Ġdescend":5698,"standing":5699,"Ġelevator":5700,"can":5701,"Ġrestaur":5702,"Ġlimits":5703,"Ġimmigrants":5704,"Ġinvestig":5705,"Ġfleet":5706,"Ġmaster":5707,"ĠLad":5708,"Ġrh":5709,"Ġsciences":5710,"Ġ400":5711,"enegger":5712,"ĠSwed":5713,"Ġarmies":5714,"warzenegger":5715,"44":5716,"inn":5717,"Ġsounds":5718,"Ġbudget":5719,"urt":5720,"aya":5721,"ĠAlaska":5722,"ĠHealth":5723,"Ġ1995":5724,"Ġsorry":5725,"%),":5726,"ĠGall":5727,"theless":5728,"Ġ120":5729,"Ġfest":5730,"urrent":5731,"ĠPower":5732,"Ġpreced":5733,"Ġgoods":5734,"Ġpatterns":5735,"Ġhonor":5736,"Ġdensity":5737,"ritre":5738,"Ġweak":5739,"Ġdecor":5740,"Ġarticle":5741,"ĠRussians":5742,"isco":5743,"Ġstrongly":5744,"ĠSocial":5745,"Ġcoastal":5746,"55":5747,"ĠTa":5748,"Ġexpensive":5749,"Ġpersons":5750,"Ġsocieties":5751,"ĠUSA":5752,"Ġsomew":5753,"SP":5754,"Ġmort":5755,"Ġdiversity":5756,"Ġconstit":5757,"Ġstrate":5758,"Ġchoice":5759,"ĠMarshall":5760,"With":5761,"ighter":5762,"agan":5763,"ĠChild":5764,"Ġsole":5765,"Ġfoundation":5766,"Ġpatent":5767,"%,":5768,"works":5769,"iced":5770,"Ġlat":5771,"ĠDon":5772,"ĠNews":5773,"ĠComcast":5774,"ĠNeumann":5775,"ĠBus":5776,"otic":5777,"Ġstadium":5778,"Ġseek":5779,"Ġshif":5780,"Ġagencies":5781,"azz":5782,"Ġprincipal":5783,"Ġengineering":5784,"Ġwalk":5785,"ĠBalk":5786,"Ġexternal":5787,"cons":5788,"Ġsubjects":5789,"panic":5790,"Ġsilver":5791,"Ġdoub":5792,"Ġmoment":5793,"Ġfoot":5794,"ĠGo":5795,"Ġperhaps":5796,"III":5797,"Ġlosses":5798,"Ġmanufactur":5799,"Ġcomponent":5800,"Ġstrategy":5801,",[":5802,"omp":5803,"Ġcompl":5804,"Ġcausing":5805,"ĠPhilipp":5806,"Ġbattles":5807,"Ġlaid":5808,"ĠJul":5809,"Ġproducer":5810,"ĠBrown":5811,"Ġtherm":5812,"Ġcore":5813,"ĠTennessee":5814,"ado":5815,"Ġflow":5816,"oting":5817,"odes":5818,"Ġmassive":5819,"Ġmountains":5820,"stone":5821,"ĠSuch":5822,"ĠSony":5823,"unction":5824,"ĠHD":5825,"Ġcontext":5826,"ĠConnect":5827,"Ġcritics":5828,"Ġnobility":5829,"Ġans":5830,"Ġhabit":5831,"Ġprep":5832,"Ġmodels":5833,"largest":5834,"bury":5835,"long":5836,"Ġcm":5837,"Ġonto":5838,"ĠHam":5839,"ĠWales":5840,"Ġreading":5841,"ĠAbd":5842,"Ġpalace":5843,"irmed":5844,"ĠField":5845,"ĠThree":5846,"Ġrestrict":5847,"ĠCubs":5848,"Ġdrugs":5849,"Ġlicens":5850,"ĠGothic":5851,"gor":5852,"vis":5853,"ortheast":5854,"aped":5855,"Ġdiscrim":5856,"73":5857,"Ġaw":5858,"Ġretain":5859,"Ġamb":5860,"Ġtransmission":5861,"Ġcircum":5862,"Ġnick":5863,"ryst":5864,"Ġprice":5865,"ĠHellenistic":5866,"Ġasked":5867,"Ġmunicipal":5868,"cient":5869,"water":5870,"Ġsqu":5871,"alem":5872,"ura":5873,"Ġraces":5874,"Ġdirected":5875,"Ġviews":5876,"Ġcauses":5877,"Ġpenal":5878,"crib":5879,"uj":5880,"ĠSund":5881,"ĠCr":5882,"ĠKe":5883,"Ġdefense":5884,"Ġvisible":5885,"Ġindustries":5886,"ĠCommunist":5887,"ĠFreem":5888,"Ġkilometres":5889,"aza":5890,"ĠPeter":5891,"ĠYouTube":5892,"thanas":5893,"erb":5894,"Ġhub":5895,"Ġnor":5896,"ĠHung":5897,"Ġcompounds":5898,"ĠLeg":5899,"This":5900,"Ġaccompan":5901,"Ġburn":5902,"ota":5903,"etball":5904,"ricts":5905,"Ġdebate":5906,"Ġmerch":5907,"Ġdocument":5908,"mine":5909,"itt":5910,"Ġgun":5911,"Ġstone":5912,"Ġenforce":5913,"ĠArsenal":5914,"Ġmarkets":5915,"Ġlibrary":5916,"For":5917,"no":5918,"vard":5919,"Ġannex":5920,"stein":5921,"ĠGDP":5922,"Ġusage":5923,"Ġeducational":5924,"Ġpurposes":5925,"Ġdang":5926,"Ġsupporters":5927,"Ġfestiv":5928,"bur":5929,"rone":5930,"Ġfirm":5931,"ĠMiss":5932,"ĠBush":5933,"ĠNic":5934,"Ġkings":5935,"Ġinvented":5936,"Ġmedicine":5937,"Ġpoetry":5938,"Ġban":5939,"ĠEv":5940,"Ġexact":5941,"Ġchampions":5942,"Ġgrant":5943,"ĠYes":5944,"Ġsurren":5945,"Ġmedium":5946,"Ġtechnical":5947,"Ġtypical":5948,"Ġcombat":5949,"63":5950,"ĠSong":5951,"ĠBYU":5952,"ĠRic":5953,"ĠFound":5954,"ĠDirect":5955,"Ġ2016":5956,"ropical":5957,"Ġmulti":5958,"ĠTheatre":5959,"Ġcomputers":5960,"ĠBeijing":5961,"Ġsamurai":5962,"ĠPresbyterian":5963,"after":5964,"Ġdu":5965,"ĠDame":5966,"Ġattended":5967,"Ġcontinent":5968,"Ġ75":5969,"Ġdepos":5970,"Ġsatellite":5971,"length":5972,"ument":5973,"ĠFree":5974,"ureau":5975,"ologist":5976,"Ġnarrow":5977,"asions":5978,"Ġlies":5979,"ĠIBM":5980,"Ġoffers":5981,"Ġquite":5982,"Ġpublication":5983,"Ġalongside":5984,"Ġregarding":5985,"Ġmentioned":5986,"lov":5987,"Ġcable":5988,"also":5989,"Ġguns":5990,"Ġdifference":5991,"Ġprinciples":5992,"Ġanalog":5993,"Ġsubsid":5994,"ancy":5995,"ĠWall":5996,"Ġroom":5997,"Ġappears":5998,"Ġalbums":5999,"Ġconcerned":6000,"Ġgods":6001,"Ġcarriers":6002,"icial":6003,"Ġdesert":6004,"Ġconsumption":6005,"ĠEritre":6006,"Ġhear":6007,"ĠCommand":6008,"Ġlegislation":6009,"Ġsemi":6010,"aming":6011,"unc":6012,"irac":6013,"Ġchain":6014,"Ġarms":6015,"hedul":6016,"Ġwinning":6017,"Is":6018,"Ġsq":6019,"Ġagricultural":6020,"ĠEducation":6021,"tre":6022,"ĠTem":6023,"ĠCross":6024,"Ġweather":6025,"Ġvariation":6026,"engers":6027,"Ġtwice":6028,"Ġhomes":6029,"Ġconquered":6030,"Ġstreets":6031,"Ġsucceeded":6032,"thanasius":6033,"US":6034,"mosp":6035,"lem":6036,"ĠSoutheast":6037,"ĠElect":6038,"Ġplat":6039,"ĠArist":6040,"Ġreprodu":6041,"Ġfactor":6042,"Ġcharacterized":6043,"Ġhundreds":6044,"Ġsusp":6045,"Ġfair":6046,"Ġperceived":6047,"Ġplays":6048,"Ġsolid":6049,"Ġaspects":6050,"ĠFrederick":6051,"ĠNep":6052,"Ġalliance":6053,"Ġcapable":6054,"Ġseparated":6055,"32":6056,"atab":6057,"Ġsell":6058,"ĠCop":6059,"obb":6060,"Ġsla":6061,"Ġsolo":6062,"inity":6063,"Ġcontained":6064,"place":6065,"Ġscen":6066,"Ġuniversal":6067,"Ġfigure":6068,"thur":6069,"agn":6070,"Ġacid":6071,"Ġprotests":6072,"Station":6073,"Ġbenef":6074,"Ġobserved":6075,"Ġselected":6076,"ĠRena":6077,"Ġshift":6078,"Ġgrounds":6079,"istory":6080,"Ġlongest":6081,"Ġaffairs":6082,"Ġbreed":6083,"Ġreaction":6084,"ĠCatalan":6085,"Ġalcohol":6086,"CC":6087,"oring":6088,"icut":6089,"ĠSing":6090,"ĠBon":6091,"ĠLos":6092,"antry":6093,"Ġconnection":6094,"Ġinvestment":6095,"ĠSecurity":6096,"ĠWarsaw":6097,"edy":6098,"Ġbad":6099,"Ġconvent":6100,"Ġtrain":6101,"Ġrailway":6102,"Ġprices":6103,"Ġsuburb":6104,"Ġfresh":6105,"Ġeld":6106,"ĠBible":6107,"range":6108,"Ġindicate":6109,"74":6110,"Ġsle":6111,"aris":6112,"ĠCorpor":6113,"Ġunlike":6114,"Ġintelligence":6115,"aleigh":6116,"Ġlowest":6117,"ĠColumbia":6118,"Ġslightly":6119,"ca":6120,"onents":6121,"ĠRights":6122,"Ġsinger":6123,"Ġrenamed":6124,"Ġencouraged":6125,"Ġvoltage":6126,"Ġslavery":6127,"Ġthir":6128,"ĠCrown":6129,"Ġstrict":6130,"ĠForces":6131,"Ġtesting":6132,"ĠBerlin":6133,"ĠService":6134,"Ġatmosp":6135,"agement":6136,"Ġleave":6137,"Ġ1941":6138,"Ġdivine":6139,"igious":6140,"Ġfounding":6141,"Ġshel":6142,"Ġparallel":6143,"ĠMedical":6144,"Ġborough":6145,"Ġpresidential":6146,"Ġbecomes":6147,"Ġwatch":6148,"Ġdocuments":6149,"IA":6150,"yes":6151,"Ġwire":6152,"Ġhy":6153,"uses":6154,"etts":6155,"Ġspecifically":6156,"Ġthousand":6157,"ĠEstonian":6158,"equ":6159,"encing":6160,"Ġhistorically":6161,"ĠManchester":6162,"Ġcelebrated":6163,"heastern":6164,"phalt":6165,"Ġwalls":6166,"olute":6167,"ĠUm":6168,"Ġinvent":6169,"Ġacknow":6170,"Ġinterests":6171,"Ġminutes":6172,"Ġpaint":6173,"Ġstrategic":6174,"Ġsubstantial":6175,"39":6176,"Ġinher":6177,"rose":6178,"Ġappoint":6179,"bourg":6180,"Ġhosted":6181,"ĠCathedral":6182,"ĠDominic":6183,"down":6184,"ĠTower":6185,"One":6186,"Î¿":6187,"Ġtal":6188,"ographical":6189,"Ġmovies":6190,"Ġbegun":6191,"ĠConserv":6192,"Ġabandoned":6193,"Ġrescue":6194,"Ġequivalent":6195,"rong":6196,"Ġdrop":6197,"roc":6198,"cha":6199,"Ġotherwise":6200,"Ġedition":6201,"Ġ1979":6202,"Ġvictim":6203,"Ġorders":6204,"Ġwithdraw":6205,"claimed":6206,"66":6207,"84":6208,"Ġregime":6209,"Ġuseful":6210,"ĠDev":6211,"Ġmembership":6212,"ĠValencia":6213,"antly":6214,"Ġfinished":6215,"ĠPenn":6216,"Ġschedul":6217,"Ġsuggests":6218,"unications":6219,"ook":6220,"Ġtren":6221,"uments":6222,"ĠNam":6223,"ĠLife":6224,"king":6225,"Ġcart":6226,"ĠHospital":6227,"Ġrich":6228,"ession":6229,"owned":6230,"Ġexposure":6231,"Ġprotest":6232,"ipped":6233,"Ġceremony":6234,"Hey":6235,"Ġnavy":6236,"amin":6237,"conomic":6238,"Ġsafety":6239,"Ġanthropology":6240,"pa":6241,"level":6242,"ptune":6243,"Ġforming":6244,"Ġ1939":6245,"Ġveget":6246,"top":6247,"Ġcul":6248,"Ġbom":6249,"icism":6250,"Ġcomposition":6251,"ĠThough":6252,"Ġcontinental":6253,"Ġ65":6254,"rises":6255,"ĠRenaissance":6256,"Ġtons":6257,"ĠSil":6258,"Ġorchest":6259,"ĠLove":6260,"ĠKong":6261,"Ġ179":6262,"Ġorigins":6263,"Ġwrite":6264,"Ġwrites":6265,"gu":6266,"Ġwid":6267,"iled":6268,"Ġeditor":6269,"Ġhosts":6270,"Ġjudges":6271,"Ġconsisting":6272,"400":6273,"Ġtheore":6274,"Ġwall":6275,"ouch":6276,"umber":6277,"ĠNear":6278,"Ġcompre":6279,"asonry":6280,"riving":6281,"ĠExp":6282,"Ġcategories":6283,"Ġsequence":6284,"ĠPrincess":6285,"fess":6286,"ira":6287,"Ġcenters":6288,"Ġpractical":6289,"ĠGreater":6290,"Ġcontaining":6291,"Ġelectricity":6292,"Ġneutral":6293,"Ġfear":6294,"ĠEst":6295,"ĠRus":6296,"ĠOb":6297,"ĠSte":6298,"Ġadvert":6299,"Ġ360":6300,"ĠEnter":6301,"Ġofficer":6302,"Ġrulers":6303,"omes":6304,"ĠLis":6305,"Ġstudied":6306,"ĠDevelopment":6307,"ĠFrank":6308,"going":6309,"Ġdiseases":6310,"Ġproportion":6311,"zing":6312,"ĠTom":6313,"ĠTour":6314,"ĠTown":6315,"ĠOs":6316,"Ġdecisions":6317,"Ġiniti":6318,"Ġvolume":6319,"Ġfashion":6320,"Ġproducing":6321,"Ġelectron":6322,"ructure":6323,"Ġcondition":6324,"ĠBureau":6325,"utation":6326,"Ġnotes":6327,"orms":6328,"Ġexecuted":6329,"49":6330,"icia":6331,"Ġng":6332,"ĠMill":6333,"Ġinstall":6334,"Ġdistricts":6335,"Ġcrim":6336,"ĠConstantin":6337,"aug":6338,"Î¹":6339,"ĠBa":6340,"Ġcalend":6341,"uated":6342,"ello":6343,"Ġpartners":6344,"ĠVen":6345,"Ġinvaded":6346,"Ġlasted":6347,"ĠBoard":6348,"ĠMongol":6349,"come":6350,"iling":6351,"Ġcoming":6352,"Ġuniverse":6353,"apse":6354,"ĠLibrary":6355,"ĠIranian":6356,"Ġeasily":6357,"Ġsoul":6358,"ĠHu":6359,"itnesses":6360,"77":6361,"ture":6362,"xic":6363,"rete":6364,"Ġ32":6365,"Ġ78":6366,"while":6367,"Ġfunds":6368,"Ġanaly":6369,"Ġconquest":6370,"ĠNotre":6371,"Ġconservative":6372,"Ġemphasis":6373,"ĠCharleston":6374,"ĠAdditionally":6375,"ĠBermuda":6376,"col":6377,"inem":6378,"ĠAthanasius":6379,"ĠAlps":6380,"ĠConvention":6381,"Ġexperiences":6382,"Ġmanager":6383,"ĠIsraeli":6384,"Ġtransportation":6385,"ĠNigeria":6386,"],":6387,"enger":6388,"ĠLuther":6389,"Ġritual":6390,"ĠAmericas":6391,"Ġpopulous":6392,"Ġgoals":6393,"Ġdeliver":6394,"ĠPeninsula":6395,"ĠTaiwan":6396,"Ġ:)":6397,"ĠConnecticut":6398,"cular":6399,"note":6400,"produ":6401,"Ġok":6402,"Ġbodies":6403,"ador":6404,"ĠStar":6405,"ackson":6406,"ĠSchwarzenegger":6407,"86":6408,"TC":6409,"pur":6410,"era":6411,"aration":6412,"ĠChe":6413,"tery":6414,"ighth":6415,"Ġcolors":6416,"Ġtechnologies":6417,"ĠLodge":6418,"Ġtell":6419,"iph":6420,"intosh":6421,"Ġsettlers":6422,"Ġtwenty":6423,"DS":6424,"ifications":6425,"Ġremov":6426,"ĠAllied":6427,"ĠAngeles":6428,"Ġassumed":6429,"idal":6430,"ĠChap":6431,"Ġelectronic":6432,"Ġ1949":6433,"Ġcalcul":6434,"ĠPlayStation":6435,"Ġenemy":6436,"arat":6437,"Ġfaced":6438,"Ġhair":6439,"istration":6440,"Ġobtained":6441,"Ġdebt":6442,"jab":6443,"airman":6444,"Ġsuccessor":6445,"Ġseparation":6446,"Ġscholar":6447,"Ġcriticism":6448,"Since":6449,"sis":6450,"Ġfish":6451,"Ġdia":6452,"Ġdress":6453,"ĠSyria":6454,"Ġtranslation":6455,"ĠSimilar":6456,"Ġpenalty":6457,"When":6458,"ĠMos":6459,"ĠLink":6460,"Ġvoted":6461,"ghan":6462,"Ġgenocide":6463,"Ġports":6464,"Ġemotion":6465,"ĠDigimon":6466,"Ġfundamental":6467,"Ġ!":6468,"rog":6469,"osm":6470,"Ġ1974":6471,"Ġpossibly":6472,"Ġpublish":6473,"Ġfeaturing":6474,"Ġtold":6475,"Ġmetaph":6476,"Ġbenefit":6477,"Ġinterpretation":6478,"roatian":6479,"run":6480,"Ġstay":6481,"Ġearned":6482,"Ġexisted":6483,"Ġreduction":6484,"former":6485,"ĠBaptist":6486,"42":6487,"Ġexceed":6488,"Ġinfring":6489,"Ġdistance":6490,"While":6491,"Ġaccompanied":6492,"ĠUr":6493,"bey":6494,"Ġemployees":6495,"ĠMyan":6496,"ĠBh":6497,"ĠEven":6498,"abul":6499,"Ġ175":6500,"Ġrefuge":6501,"Ġradical":6502,"ĠBuddha":6503,"related":6504,"Ġsomewhat":6505,"inental":6506,"ora":6507,"ĠAut":6508,"Ġthing":6509,"ĠJackson":6510,"âĢĿ":6511,"ĠNorthwestern":6512,"Ġcorruption":6513,"Ġfixed":6514,"ĠCarnival":6515,"82":6516,"itudes":6517,"uties":6518,"acent":6519,"Ġuser":6520,"Ġroots":6521,"Ġending":6522,"venues":6523,"Ġmyth":6524,"Ġdestruction":6525,"Ġcriticized":6526,"ĠStandard":6527,"Î½":6528,"Ġchannel":6529,"ection":6530,"Ġsetting":6531,"Ġobtain":6532,"Ġclassification":6533,"ĠSummer":6534,"ĠCorporation":6535,"igan":6536,"Ġforward":6537,"ĠVer":6538,"Ġdefend":6539,"Ġperformances":6540,"Ġreceiving":6541,"ĠBlue":6542,"Ġbombing":6543,"Ġefficiency":6544,"Ġmosaics":6545,"Ġprotein":6546,"achusetts":6547,"ĠAristot":6548,"ĠMyanmar":6549,"ĠSichuan":6550,"Ġcomics":6551,"Ġgoverned":6552,"Ġmechanism":6553,"Ġastronom":6554,"Ġplatform":6555,"jiang":6556,"Ġcrown":6557,"Ġbird":6558,"Ġcompression":6559,"Ġshopping":6560,"ricted":6561,"Ġappropri":6562,"Ġexped":6563,"Ġorganism":6564,"Ġformerly":6565,"Ġcoverage":6566,"Ġviolence":6567,"ĠBelg":6568,"Ġbehavi":6569,"Ġitems":6570,"Ġprefer":6571,"Ġ1993":6572,"Ġpercentage":6573,"Ġcosts":6574,"Ġvisitors":6575,"ĠTechnology":6576,"Ġdatab":6577,"Ġvess":6578,"ictions":6579,"....":6580,"Ġsuperior":6581,"SO":6582,"gil":6583,"Ġnom":6584,"adian":6585,"ĠThrough":6586,"Ã©e":6587,"pective":6588,"ki":6589,"itarian":6590,"olith":6591,"ĠCard":6592,"Ġpreferred":6593,"ĠGuard":6594,"Ġprotected":6595,"Ġfestivals":6596,"rep":6597,"Ġreality":6598,"ader":6599,"ĠNob":6600,"Ġleads":6601,"Ġbiggest":6602,"ĠMassachusetts":6603,"ĠConstantinople":6604,"'.":6605,"bal":6606,"ithuan":6607,"ĠWood":6608,"illery":6609,"ansas":6610,"Ġplanning":6611,"Ġresidential":6612,"ois":6613,"Ġmas":6614,"cell":6615,"ĠIV":6616,"ĠHistory":6617,"ĠIndust":6618,"Ġassent":6619,"Ġtreaties":6620,"Ġepis":6621,"Ġlinked":6622,"bes":6623,"but":6624,"Ã¤":6625,"onso":6626,"Ġselling":6627,"iful":6628,"Ġran":6629,"Ġchanging":6630,"Ġsixth":6631,"Ġcircuit":6632,"Ġtrees":6633,"ĠMartin":6634,"Ġcra":6635,"ĠRaleigh":6636,"avian":6637,"ĠAlf":6638,"continent":6639,"PC":6640,"ng":6641,"yr":6642,"Ġille":6643,"Ġwider":6644,"Ġpray":6645,"Ġstress":6646,"asts":6647,"ips":6648,"ĠThird":6649,"gram":6650,"Ġapproval":6651,"ĠReserve":6652,"Ġjobs":6653,"Ġmonarchy":6654,"Ġspiritual":6655,"ĠFoundation":6656,"uis":6657,"Ġhus":6658,"raine":6659,"Ġsufficient":6660,"minster":6661,"Ġradiation":6662,"Ġrepresentatives":6663,"Ġinitiated":6664,"Ġinsect":6665,"ĠPrize":6666,"Ġneighborhoods":6667,"Ġpione":6668,"Ġworth":6669,"heng":6670,"Ġcollapse":6671,"ĠCypri":6672,"gence":6673,"inations":6674,"update":6675,"Ġexpression":6676,"Ġskin":6677,"Ġfolk":6678,"Ġatom":6679,"Ġmatters":6680,"Ġvocal":6681,"Ġopinion":6682,"ĠSunday":6683,"38":6684,"ais":6685,"sor":6686,"Ġlod":6687,"Ġgives":6688,"Ġgymn":6689,"ĠReform":6690,"Ġ1986":6691,"Ġtourism":6692,"Ġemotions":6693,"Ġefficient":6694,"ĠVietnam":6695,"Ġpig":6696,"Ġcongreg":6697,"ĠFar":6698,"Ġchap":6699,"Ġprompt":6700,"Ġaffirm":6701,"Ġresearc":6702,"ipping":6703,"Ġrivers":6704,"clusion":6705,"ĠDemocr":6706,"zhou":6707,"ss":6708,"Ġtall":6709,"Ġmic":6710,"Ġinstalled":6711,"Ġmainstream":6712,"Ġmotors":6713,"',":6714,"ĠLoc":6715,"ĠLike":6716,"Ġenrol":6717,"Ġ38":6718,"Ġextra":6719,"Ġruler":6720,"ĠMinor":6721,"Ġfunding":6722,"Ġratio":6723,"62":6724,"Ġtur":6725,"ati":6726,"Ġsale":6727,"isp":6728,"ĠMes":6729,"ĠEp":6730,"ocol":6731,"ultane":6732,"Ġconsc":6733,"Ġneeds":6734,"Ġrequest":6735,"Ġaccounts":6736,"Ġmathematics":6737,"ĠâĢľ":6738,"Ġcomprehens":6739,"68":6740,"ygen":6741,"isf":6742,"ĠDown":6743,"Ġexc":6744,"abled":6745,"Ġflour":6746,"ĠKhan":6747,"Ġensure":6748,"CO":6749,"uah":6750,"cht":6751,"ĠEr":6752,"Ġsearch":6753,"Ġgenome":6754,"ĠJohnson":6755,"iki":6756,"Ġphysics":6757,"Ġamounts":6758,"Ġbacterial":6759,"Ġpurchased":6760,"rig":6761,"Ġcrow":6762,"etary":6763,"Ġshoot":6764,"rison":6765,"ĠCarl":6766,"ĠMacintosh":6767,"ĠNamib":6768,"pm":6769,"Ġloyal":6770,"ushed":6771,"ĠNon":6772,"Ġcharity":6773,"Ġcrew":6774,"Ġeggs":6775,"ni":6776,"Ġtrial":6777,"hered":6778,"imal":6779,"Ġexcess":6780,"ĠGram":6781,"cop":6782,"Ġfoss":6783,"char":6784,"Ġphr":6785,"Ġreligions":6786,"Ġinstrument":6787,"Ġcommitted":6788,"set":6789,"ima":6790,"ĠMerc":6791,"ĠEth":6792,"ĠJuda":6793,"Ġshot":6794,"Ġflat":6795,"69":6796,"eenth":6797,"Ġintern":6798,"arant":6799,"Ġgro":6800,"ĠPict":6801,"Ġexists":6802,"ĠOffic":6803,"ultural":6804,"Ġclim":6805,"ĠHelena":6806,"37":6807,"600":6808,"EG":6809,"Ġsays":6810,"edd":6811,"Ġbought":6812,"ĠLy":6813,"resents":6814,"Ġrooms":6815,"Ġdescent":6816,"Ġinfluences":6817,"Ġsingles":6818,"Ġtempor":6819,"Ġcasual":6820,"Sp":6821,"Ġsister":6822,"itals":6823,"Ġenh":6824,"Ġpurs":6825,"Ġbegins":6826,"ĠTerrit":6827,"Ġantibiotics":6828,"ĠTop":6829,"ĠJay":6830,"ĠOut":6831,"ĠVol":6832,"ĠThuring":6833,"Ġdevelopments":6834,"Ġpatron":6835,"Ġsenior":6836,"61":6837,"ĠOk":6838,"Ġadap":6839,"Ġboys":6840,"Ġguitar":6841,"Ġmotion":6842,"Ġcycle":6843,"Ġrarely":6844,"ĠDr":6845,"ĠDen":6846,"Ġinvolving":6847,"ĠFrancis":6848,"Ġattributed":6849,"ĠTaj":6850,"Ġsevent":6851,"Ġmechanical":6852,"Ġbranches":6853,"Ġranges":6854,"ĠJeff":6855,"300":6856,"gent":6857,"Ġfru":6858,"Ġfuel":6859,"ulpt":6860,"ĠFer":6861,"Ġseat":6862,"Ġuniform":6863,"Ġtruth":6864,"Ġcovers":6865,"Ġdriven":6866,"Ġdiscrimination":6867,"kes":6868,"Ġmales":6869,"Ġgall":6870,"abil":6871,"abet":6872,"ulty":6873,"Ġagency":6874,"Ġroles":6875,"teb":6876,"ĠOnly":6877,"Ġgrown":6878,"ĠBre":6879,"ĠGra":6880,"Ġvotes":6881,"fully":6882,"Ġrestored":6883,"Ġruling":6884,"ĠLEDs":6885,"Ġvideos":6886,"Gree":6887,"law":6888,"roph":6889,"ĠIbn":6890,"Ġgross":6891,"ishops":6892,"Ġmetres":6893,"Ġgenerated":6894,"Ġpassengers":6895,"Ġnetworks":6896,"ÏĤ":6897,"ingham":6898,"Ġassist":6899,"Ġ1969":6900,"onym":6901,"orate":6902,"Ġdating":6903,"operation":6904,"awa":6905,"Ġauthors":6906,"ĠCommunity":6907,"ĠYugoslavia":6908,"ĠPunjab":6909,"RA":6910,"alin":6911,"Ġbond":6912,"elve":6913,"ĠFox":6914,"Ġchrom":6915,"ograp":6916,"ibl":6917,"Ġscore":6918,"ĠAncient":6919,"culosis":6920,"uerto":6921,"Ġbott":6922,"ayy":6923,"ques":6924,"Ġnorthwest":6925,"ĠNeptune":6926,"Ġrecognition":6927,"Ġoverseas":6928,"ĠBusiness":6929,"uscript":6930,"ĠMot":6931,"ĠEU":6932,"ĠDC":6933,"Ġscreen":6934,"Ġlanding":6935,"Ġsurvived":6936,"ĠSerb":6937,"Ġconcentrated":6938,"Ġoxygen":6939,"ĠBuilding":6940,"Following":6941,"Ġton":6942,"Ġath":6943,"ani":6944,"Ġstra":6945,"Ġalph":6946,"iege":6947,"arked":6948,"ucas":6949,"Ġ1978":6950,"Ġdesignated":6951,"Ġreducing":6952,"Ġdetermine":6953,"rastructure":6954,"Ã³n":6955,"inian":6956,"ĠPost":6957,"apers":6958,"Ġundergrad":6959,"Ġaccused":6960,"Ġ1985":6961,"Ġphilosophical":6962,"Ġabsolute":6963,"Ġparent":6964,"Ġprecipitation":6965,"DA":6966,"Gen":6967,"gl":6968,"Ġtheat":6969,"Ġocean":6970,"Ġcars":6971,"Ġmal":6972,"ĠLive":6973,"Ġsections":6974,"ockey":6975,"Ġgender":6976,"Ġ(/":6977,"Ġconsec":6978,"ĠFire":6979,"Ġdoctor":6980,"ĠYoun":6981,"Ġcultiv":6982,"Ġincreases":6983,"Ġ1984":6984,"Ġidentify":6985,"Ġcarrier":6986,"Ġpromotion":6987,"Ġtuber":6988,"isher":6989,"Ġproced":6990,"Ġvent":6991,"Ġseats":6992,"Ġperfect":6993,"ĠAntarctica":6994,"ĠJudaism":6995,"Ġresidence":6996,"usted":6997,"Ġheritage":6998,"ĠEuropeans":6999,"Ġoblig":7000,"Ġvalley":7001,"Ġresponsibility":7002,"cules":7003,"Ġrhyth":7004,"Ġtim":7005,"onial":7006,"Ġdict":7007,"Ġbeat":7008,"ĠNES":7009,"ĠChih":7010,"Ġnormally":7011,"Ġbeliefs":7012,"arr":7013,"omer":7014,"Ġstating":7015,"Ġwarm":7016,"Ġrepresents":7017,"ĠCentre":7018,"iveness":7019,"ienna":7020,"Ġranging":7021,"Ġresearchers":7022,"mod":7023,"Ġborders":7024,"ĠMur":7025,"ĠMand":7026,"Ġ1900":7027,"Ġ1914":7028,"assic":7029,"Ġempir":7030,"rows":7031,"Ġbask":7032,"Ġattracted":7033,"Ġregularly":7034,"Ġvarying":7035,"Ġwebsite":7036,"ano":7037,"ĠBridge":7038,"ĠRog":7039,"Ġunable":7040,"Ġconsult":7041,"Ġspoke":7042,"Ġartillery":7043,"Ġannoun":7044,"Ġdivisions":7045,"Ġcondem":7046,"ĠHanover":7047,"ĠMcC":7048,"Ġrainfall":7049,"ĠFurthermore":7050,"Ġmerely":7051,"yard":7052,"olas":7053,"ĠHun":7054,"Ġunf":7055,"Ġshape":7056,"Ġtheme":7057,"Ġrestricted":7058,"Ġarchae":7059,"Ġentertainment":7060,"ĠMontana":7061,"Ġoccasionally":7062,"iology":7063,"eded":7064,"emen":7065,"Ġconsolid":7066,"Ġ1973":7067,"Ġ1976":7068,"ĠWestminster":7069,"ĠMonte":7070,"Ġlighting":7071,"Ġwinner":7072,"Ġestimates":7073,"ĠFrancisco":7074,"ĠNepal":7075,"ĠChihuah":7076,"Ġclock":7077,"ĠVienna":7078,"Ġenact":7079,"Ġinches":7080,"Ġnoble":7081,"Ġterror":7082,"ĠMaria":7083,"Ġbusinesses":7084,"Ġestablishing":7085,"olithic":7086,"Ġtheatre":7087,"Ġpestic":7088,"Ġliqu":7089,"Ġ1918":7090,"Ġpartly":7091,"Ġnothing":7092,"Ġinstruct":7093,"obe":7094,"Ġoccupation":7095,"Ġmammals":7096,"div":7097,"mas":7098,"emble":7099,"rive":7100,"ĠFam":7101,"Ġcommander":7102,"Ġ1948":7103,"brew":7104,"cher":7105,"Ġprohib":7106,"ĠConfeder":7107,"Ġexercise":7108,"31":7109,"Most":7110,"uff":7111,"Ġinaug":7112,"leuc":7113,"ĠAA":7114,"ĠCamb":7115,"utical":7116,"ĠJud":7117,"ĠSeleuc":7118,"Ġassess":7119,"Ġmusicians":7120,"Ġfiles":7121,"Ġ1944":7122,"Ġparks":7123,"Ġrequirements":7124,"iat":7125,"oan":7126,"pool":7127,"uits":7128,"Ġaer":7129,"Ġcogn":7130,"Ġcalls":7131,"Ġbatter":7132,"abilities":7133,"ĠAls":7134,"ĠAustrian":7135,"Ġvoice":7136,"ĠRadio":7137,"Ġawards":7138,"endum":7139,"Ġbackground":7140,"Ġexecution":7141,"Ġintegrated":7142,"Ġbalance":7143,"ET":7144,"anda":7145,"ĠNever":7146,"Ġartific":7147,"Ġdemocracy":7148,"Ġconfirmed":7149,"iological":7150,"ja":7151,"osite":7152,"ĠDal":7153,"ĠLow":7154,"Ġflood":7155,"Ġadjacent":7156,"Ġcalendar":7157,"83":7158,"nas":7159,"Ġment":7160,"ĠSic":7161,"ĠPuerto":7162,"Ġstim":7163,"ĠGulf":7164,"ĠRA":7165,"ellion":7166,"Ġ1971":7167,"llo":7168,"Ġsteel":7169,"ĠDefence":7170,"ĠLabour":7171,"IC":7172,"urance":7173,"Ġarrival":7174,"inea":7175,"Ġresist":7176,"Ġsculpt":7177,"Ġpolar":7178,"Ġassemb":7179,"compass":7180,"Ġengaged":7181,"Ġcapture":7182,"Ġdollar":7183,"ĠAshkenazi":7184,"41":7185,"rance":7186,"lets":7187,"Ġthick":7188,"ibn":7189,"itional":7190,"ynman":7191,"Ġtemple":7192,"Ġguess":7193,"Ġargue":7194,"ĠPhilippines":7195,"Ġhusband":7196,"kins":7197,"Ġfans":7198,"Ġthrone":7199,"rared":7200,"Ġresolution":7201,"Ġpreval":7202,"Ġpieces":7203,"Ġdiplomatic":7204,"Ġstock":7205,"ĠEver":7206,"Ġ33":7207,"ĠReal":7208,"Ġelectro":7209,"Ġ1967":7210,"Ġregulations":7211,"Ġsustain":7212,"unciation":7213,"Ġculmin":7214,"Ġstages":7215,"pping":7216,"ĠAli":7217,"Ġ1987":7218,"Ġconsumer":7219,"Ġcomparison":7220,"Ġopportunity":7221,"Ġisolated":7222,"Ġscheme":7223,"nament":7224,"punk":7225,"Ġcuis":7226,"Ġmist":7227,"Ġnote":7228,"Ġweb":7229,"Ġoperates":7230,"Ġdescribes":7231,"Ġfrequent":7232,"Ġdebut":7233,"Ġquestions":7234,"Ġmobile":7235,"Ġadolescents":7236,"usalem":7237,"Ġye":7238,"Ġbuy":7239,"anguage":7240,"Ġroutes":7241,"Ġreflected":7242,"Ġcomposer":7243,"Ġextinction":7244,"Ġsuburbs":7245,"Ġouter":7246,"ĠUs":7247,"illing":7248,"rition":7249,"Ġpeas":7250,"ĠAfghan":7251,"Ġstanding":7252,"ĠScottish":7253,"cribed":7254,"800":7255,"fare":7256,"Éª":7257,"Ġarose":7258,"Ġfrag":7259,"ĠCork":7260,"ĠConference":7261,"Ġ1982":7262,"Ġ1972":7263,"Ġ1968":7264,"Ġmeasured":7265,"Ġlamps":7266,"hu":7267,"ÏĦ":7268,"Ġheter":7269,"Ġlocations":7270,"Ġevening":7271,"Ġmarine":7272,"ĠPolice":7273,"zen":7274,"aling":7275,"Ġhour":7276,"Ġunc":7277,"Ġinfrastructure":7278,"Ġprede":7279,"Ġcollaps":7280,"Ġordinary":7281,"Ġaimed":7282,"Ġboundaries":7283,"Euro":7284,"modern":7285,"pet":7286,"Ġlie":7287,"ilit":7288,"Ġsup":7289,"Ġyellow":7290,"Ġhen":7291,"Ġ1880":7292,"Ġproduces":7293,"Ġindependently":7294,"Ġbringing":7295,"71":7296,"Se":7297,"rec":7298,"ittle":7299,"orph":7300,"asa":7301,"Ġreaching":7302,"ĠBab":7303,"Ġrising":7304,"Ġperception":7305,"ĠArm":7306,"obby":7307,"Ġreferendum":7308,"ĠBrook":7309,"His":7310,"Ġsn":7311,"Ġstored":7312,"ersey":7313,"ĠLight":7314,"Ġimages":7315,"Ġroads":7316,"Ġsignals":7317,"Ġtemporary":7318,"Ġautonomy":7319,"Ġnickn":7320,"72":7321,"ancing":7322,"Ġasphalt":7323,"ĠMen":7324,"ĠDue":7325,"agues":7326,"Ġsimultane":7327,"Ġstatement":7328,"Ġpredators":7329,"Ġlearn":7330,"Ġthreatened":7331,"car":7332,"ĠCode":7333,"chang":7334,"Ġabst":7335,"Ġneither":7336,"Ġtracks":7337,"Ġprivile":7338,"ĠPalest":7339,"Ġswim":7340,"ĠÐ":7341,"rem":7342,"Ġrevers":7343,"ĠAff":7344,"Ġstead":7345,"orts":7346,"Ġassass":7347,"Ġvaries":7348,"Ġamongst":7349,"Ġexplain":7350,"Ġholding":7351,"Ġtroph":7352,"ĠClassical":7353,"Ġsegment":7354,"han":7355,"vest":7356,"arn":7357,"ĠSports":7358,"igrated":7359,"ĠJac":7360,"Ġarist":7361,"Ġshall":7362,"enses":7363,"Ġprepar":7364,"teenth":7365,"Ġopposite":7366,"Ġtargets":7367,"Ġconcentration":7368,"ĠOrganization":7369,"ĠJerusalem":7370,"gi":7371,"umes":7372,"rency":7373,"rasbourg":7374,"Ġquantum":7375,"Ġvolunteer":7376,"Ġrestaurants":7377,"Ġanswer":7378,"zz":7379,"adi":7380,"ĠFair":7381,"Ġvarieties":7382,"Ġemotional":7383,"ĠBaltic":7384,"ĠChihuahua":7385,"MS":7386,"Ã¦":7387,"Ġnav":7388,"ager":7389,"Ġpharm":7390,"Ġtransferred":7391,"Ġmayor":7392,"Ġpublicly":7393,"Ġguarant":7394,"Ġencounter":7395,"xi":7396,"Ġties":7397,"anes":7398,"rena":7399,"Ġcharacteristic":7400,"Ġneighboring":7401,"Ġcandidates":7402,"Ġalleged":7403,"Ġcance":7404,"rians":7405,"ĠLabor":7406,"Ġagree":7407,"Ġ64":7408,"Ġbroken":7409,"ĠMinistry":7410,"Ġcampaigns":7411,"Ġdistinguished":7412,"Ġcontroversy":7413,"Ġvillage":7414,"Ġthermal":7415,"uous":7416,"orous":7417,"urric":7418,"amber":7419,"emic":7420,"ogue":7421,"ouses":7422,"angel":7423,"Ġmineral":7424,"Ġpromote":7425,"Ġpursu":7426,"apping":7427,"Ġconcepts":7428,"Ġhardware":7429,"Ġjudicial":7430,"ĠArchitect":7431,"prise":7432,"ĠFreemasonry":7433,"59":7434,"from":7435,"Ġdiver":7436,"ĠTim":7437,"imil":7438,"ĠStalin":7439,"Ġroll":7440,"Ġdiff":7441,"Ġlegislature":7442,"Ġimplemented":7443,"itled":7444,"Ġgenre":7445,"ĠAnton":7446,"Ġprofession":7447,"Ġsuffering":7448,"Ġnewspapers":7449,"09":7450,"Ġdated":7451,"Ġtoler":7452,"ĠSultan":7453,"Ġinterior":7454,"Ġrecordings":7455,"Ġoffering":7456,"iac":7457,"Ïģ":7458,"aints":7459,"Ġdiscs":7460,"Ġwrestling":7461,"ĠForeign":7462,"Ġvehicles":7463,"ĠTajik":7464,"erate":7465,"Ġsolution":7466,"Ġbra":7467,"olis":7468,"Ġgraph":7469,"aceutical":7470,"Ġblacks":7471,"Ġmainland":7472,"Ġsupporting":7473,"Ġpersonnel":7474,"Ġmerged":7475,"Ġviolent":7476,"Ġcathedral":7477,"Ġcouple":7478,"Ġsacrif":7479,"Ġcasualties":7480,"Ġinternet":7481,"Ġbridge":7482,"ĠSat":7483,"ationally":7484,"ĠDaily":7485,"aine":7486,"Ġunsu":7487,"play":7488,"Ind":7489,"Ġmanner":7490,"who":7491,"avalry":7492,"Ġexperiment":7493,"Ġabolished":7494,"Ġconversion":7495,"ba":7496,"des":7497,"ĠBond":7498,"Ġ1911":7499,"ĠUE":7500,"ĠOh":7501,"Ġrob":7502,"Ġsuburban":7503,"Ġvaried":7504,"Ġmanuscript":7505,"Ġtermin":7506,"Ġartistic":7507,"Ġtrying":7508,"ĠSmith":7509,"chen":7510,"erted":7511,"Ġadvent":7512,"Ġimposed":7513,"Ġvisual":7514,"Ġexplan":7515,"ylvan":7516,"ĠTrade":7517,"Ġborrow":7518,"ĠGalicia":7519,"ĠCorps":7520,"Ġvirtually":7521,"Ġelsewhere":7522,"Ġcoalition":7523,"Ġcriminal":7524,"Ãł":7525,"ĠFI":7526,"ĠWu":7527,"ĠJersey":7528,"Ġgraduate":7529,"Ġhomosexual":7530,"Ġsafe":7531,"Ġminimum":7532,"Ġacknowled":7533,"ĠNamibia":7534,"Ġpup":7535,"Ġfile":7536,"ĠHaw":7537,"Ġexport":7538,"Ġru":7539,"Ġrpm":7540,"Ġthereby":7541,"Ġheaded":7542,"Ġdescendants":7543,"trecht":7544,"kin":7545,"zona":7546,"ĠTs":7547,"ĠDST":7548,"ĠWell":7549,"ĠJean":7550,"ĠMarvel":7551,"ĠGuam":7552,"Ġelite":7553,"ĠSomalia":7554,"gers":7555,"âĪĴ":7556,"Ġrom":7557,"Ġfishing":7558,"Ġdub":7559,"ĠWater":7560,"Ġassigned":7561,"Ġhumid":7562,"profit":7563,"Ġcategory":7564,"Ġpurchase":7565,"Ġmutual":7566,"abulary":7567,"81":7568,"iop":7569,"lation":7570,"Ġbishops":7571,"iants":7572,"ĠKie":7573,"Ġadvoc":7574,"ĠMonica":7575,"Ġcontributions":7576,"Ġclean":7577,"ĠEntertainment":7578,"Europe":7579,"ylvania":7580,"87":7581,"rators":7582,"inth":7583,"rey":7584,"Ġcinem":7585,"Ġpick":7586,"aylor":7587,"aks":7588,"Ġ36":7589,"Ġincident":7590,"ĠEnd":7591,"Ġanything":7592,"Ġcourses":7593,"Ġprocessing":7594,"ĠAdmin":7595,"aders":7596,"ĠMo":7597,"Ġconference":7598,"Ġencompass":7599,"Ġassistance":7600,"Ġcoord":7601,"Ġfollows":7602,"Ġsurvey":7603,"Ġpassage":7604,"affe":7605,"Ġlegislative":7606,"ĠHello":7607,"Ġexclusive":7608,"Ġpair":7609,"Ġrecon":7610,"Ġdeleg":7611,"acc":7612,"Ġranks":7613,"Ġplate":7614,"Ġspeaking":7615,"Ġassembly":7616,"Ġconstitu":7617,"Ġelabor":7618,"Ġmillenn":7619,"Ġpredecess":7620,"da":7621,"mat":7622,"Ġpul":7623,"Ġlik":7624,"ĠMax":7625,"ĠBetween":7626,"istical":7627,"ĠDV":7628,"Ġfounder":7629,"Ġ1975":7630,"Ġhistorian":7631,"Ġparticipated":7632,"Ġexclusively":7633,"Ġprogramming":7634,"ĠAfghanistan":7635,"36":7636,"gar":7637,"video":7638,"Ġswe":7639,"ether":7640,"ĠPS":7641,"ĠDest":7642,"Ġ1981":7643,"Ġ1966":7644,"Ġtelephone":7645,"Ġrecognised":7646,"Ġimmigration":7647,"Ġutil":7648,"Ġcontroversial":7649,"Ġcircumst":7650,"We":7651,"Î»":7652,"Ġtom":7653,"Ġhal":7654,"ĠBos":7655,"orses":7656,"Ġperforming":7657,"Ġinvolves":7658,"Ġfamiliar":7659,"ĠâĤ":7660,"wers":7661,"hetic":7662,"enna":7663,"ĠCy":7664,"ĠCru":7665,"ĠNag":7666,"Ġrational":7667,"oked":7668,"Ġcomprehensive":7669,"inter":7670,"Ġdrew":7671,"Ġhip":7672,"Ġstories":7673,"ĠWay":7674,"Ġvow":7675,"Ġsect":7676,"kee":7677,"ardens":7678,"Ġcloud":7679,"Ġcharter":7680,"Ġclaiming":7681,"Ġlearned":7682,"Ġdamaged":7683,"Ġcontinuous":7684,"autiful":7685,"ĠAlexandria":7686,"ky":7687,"rant":7688,"uation":7689,"Ġconvention":7690,"ĠLithuan":7691,"athers":7692,"idden":7693,"ennis":7694,"Ġmachines":7695,"Ġhospital":7696,"ĠArena":7697,"ĠJour":7698,"Ġtrig":7699,"Ġgramm":7700,"Ġfled":7701,"Ġwritings":7702,"Ġkilling":7703,"Ġsurviving":7704,"Ġcoins":7705,"All":7706,"rise":7707,"Ġtact":7708,"Ġcryst":7709,"lywood":7710,"ĠSem":7711,"ĠCab":7712,"Ġencl":7713,"Ġvariations":7714,"Ġclassic":7715,"ðŁĺ":7716,"Ġcommunications":7717,"Ġdistributed":7718,"Ġdependent":7719,"Ġstruggle":7720,"pine":7721,"Ġtheology":7722,"ĠPto":7723,"estab":7724,"Ġchronic":7725,"ĠUSSR":7726,"Ġ1961":7727,"ophy":7728,"Ġdenied":7729,"Ġproposal":7730,"Ġtuberculosis":7731,"Ġbasketball":7732,"bear":7733,"worth":7734,"Ġtask":7735,"esar":7736,"Ġlosing":7737,"lyn":7738,"idge":7739,"ĠPur":7740,"Ġdismiss":7741,"Ġ55":7742,"Ġconnections":7743,"ĠSomers":7744,"ĠArizona":7745,"hov":7746,"pop":7747,"Ġthin":7748,"Ġspending":7749,"Ġexplicit":7750,"Ġinterpre":7751,"ĠFilm":7752,"Ġbenefits":7753,"ĠYoung":7754,"ĠNevertheless":7755,"Sh":7756,"Ġá":7757,"stood":7758,"Ġcommem":7759,"piration":7760,"Ġevolutionary":7761,"Ġcrops":7762,"Ġmanufacturers":7763,"point":7764,"ĠLo":7765,"Ġcompat":7766,"ĠStaff":7767,"ĠUnlike":7768,"Ġcentres":7769,"Ġfewer":7770,"Ġjudge":7771,"Ġpeninsula":7772,"Ġsovereignty":7773,"Ġaffirmative":7774,"ĠUEFA":7775,"onation":7776,"Ġnortheast":7777,"ĠBuck":7778,"Ġleaves":7779,"Ġ44":7780,"Ġshell":7781,"Ġconflicts":7782,"ĠCastle":7783,"Ġdenominations":7784,"Ġscheduled":7785,"Ġmetaphys":7786,"Ġdatabase":7787,"Ġster":7788,"itting":7789,"Ġha":7790,"illy":7791,"amar":7792,"ĠJr":7793,"Ġfilament":7794,"Ġdesigns":7795,"Ġexplained":7796,"bean":7797,"ĠMichigan":7798,"Ġscenes":7799,"Hello":7800,"Ġsed":7801,"Ġwine":7802,"eless":7803,"Ġstars":7804,"ĠKent":7805,"Ġ1964":7806,"Ġreceives":7807,"folk":7808,"sylvania":7809,"Ġfib":7810,"Ġstable":7811,"appe":7812,"Ġshipping":7813,"Ġsupplies":7814,"Ġdeaths":7815,"Ġcriter":7816,"Ġguard":7817,"Ġcompetitions":7818,"Ġcarrying":7819,"Ġwealthy":7820,"GB":7821,"selling":7822,"icy":7823,"Ġninet":7824,"ĠAthen":7825,"aved":7826,"ĠVar":7827,"Ġlegit":7828,"ĠXX":7829,"Ġloan":7830,"Ġplanet":7831,"Ġrestrictions":7832,"inch":7833,"ĠCold":7834,"ĠBulg":7835,"Ġstream":7836,"ĠStrasbourg":7837,"Ġsphere":7838,"phony":7839,"acterial":7840,"Ġdigest":7841,"Ġessentially":7842,"Ġgirls":7843,"Ġrecommended":7844,"Ġvessels":7845,"govern":7846,"Ġsin":7847,"ĠCBC":7848,"ĠLiver":7849,"ĠUl":7850,"Ġ1977":7851,"Ġportray":7852,"ĠShell":7853,"Ġtaxes":7854,"Ġwavelength":7855,"Ġdramatic":7856,"Ġjurisdiction":7857,"ĠBalkans":7858,"Disc":7859,"tes":7860,"Ġcant":7861,"Ġcamer":7862,"Ġeyes":7863,"Ġ1000":7864,"ĠWii":7865,"Ġassets":7866,"Ġ1983":7867,"Ġnecessarily":7868,"Ġhouseholds":7869,"Ġfranch":7870,"ĠAristotle":7871,"ĠAh":7872,"ĠAst":7873,"ĠDou":7874,"ĠWitnesses":7875,"ĠProfess":7876,"Ġfunny":7877,"Ġ1953":7878,"Ġconnecting":7879,"Ġfacility":7880,"Ġsumm":7881,"Ġindicated":7882,"Ġcredited":7883,"Ġcloser":7884,"hma":7885,"kh":7886,"Ð°":7887,"inder":7888,"aka":7889,"Ġalloy":7890,"Ġacting":7891,"Ġremove":7892,"Ġidentical":7893,"Ġrepresentation":7894,"Ġ1956":7895,"Ġshortly":7896,"Ġtwelve":7897,"ĠPopper":7898,"Ġresponded":7899,"Ġillegal":7900,"46":7901,"order":7902,"Ġpets":7903,"Ġbapt":7904,"iginal":7905,"ĠInf":7906,"akers":7907,"Ġsoil":7908,"Ġadoption":7909,"ĠFeynman":7910,"ĠUkrain":7911,"ĠNorman":7912,"Ġbombers":7913,"eff":7914,"Ġfestival":7915,"ication":7916,"letic":7917,"Ġevac":7918,"ĠIndo":7919,"Ġsets":7920,"Ġpersec":7921,"ecutive":7922,"Ġ1947":7923,"ĠInstead":7924,"ĠRevolutionary":7925,"Ġsettlements":7926,"Ġaccompl":7927,"Ġprosper":7928,"Ġsleep":7929,"found":7930,"mn":7931,"ooth":7932,"Ġwaves":7933,"Ġindu":7934,"style":7935,"andy":7936,"ĠJim":7937,"Ġworship":7938,"ĠUnic":7939,"Ġprest":7940,"Ġtrained":7941,"Ġexplo":7942,"Ġcivilian":7943,"ĠVirgil":7944,"ĠOlympics":7945,"Ġtranslated":7946,"Ġdistinctive":7947,"Ġsituated":7948,"ĠSpecial":7949,"ĠLuft":7950,"eries":7951,"acre":7952,"Ġrelief":7953,"Ġcounties":7954,"Ġsupposed":7955,"Ġdepends":7956,"comp":7957,"Ġsurrounded":7958,"Ġcustomers":7959,"ĠJustice":7960,"trans":7961,"iams":7962,"uay":7963,"ĠÅ":7964,"Ġtiss":7965,"Ġsail":7966,"Ġgarden":7967,"ifer":7968,"Ġoverw":7969,"Ġcharged":7970,"Ġentry":7971,"Ġpubl":7972,"Ġconsisted":7973,"ĠGlobal":7974,"Ġelevation":7975,"Ġcounterpart":7976,"Ġlinks":7977,"Ġcontestants":7978,"European":7979,"bar":7980,"ĠMic":7981,"ĠBat":7982,"Ġunited":7983,"ĠStone":7984,"ĠReport":7985,"Ġflower":7986,"Ġtechnique":7987,"escent":7988,"Ġbot":7989,"Ġdrum":7990,"ĠRod":7991,"ishment":7992,"ĠKen":7993,"ibbean":7994,"ĠVideo":7995,"ĠBefore":7996,"Ġ1958":7997,"Ġhorse":7998,"ĠObama":7999,"Ġliquid":8000,"47":8001,"bra":8002,"Ġbright":8003,"using":8004,"Ġstopp":8005,"Ġ1910":8006,"ateral":8007,"Ġ600":8008,"Ġpassenger":8009,"Ġsecure":8010,"Ġrepresenting":8011,"ĠCoast":8012,"Ġmorning":8013,"Ġdecreased":8014,"Ġdollars":8015,"Ġvictims":8016,"Ġcuisine":8017,"MA":8018,"itic":8019,"Ġrevenues":8020,"Ġforb":8021,"othe":8022,"Ġstorm":8023,"ĠAnglic":8024,"Ġelevators":8025,"Ġbrothers":8026,"ĠMoh":8027,"Ġ250":8028,"ĠUtrecht":8029,"Ġshut":8030,"ĠArthur":8031,"Ġmonaster":8032,"Ġreputation":8033,"Ġ1963":8034,"hovah":8035,"oust":8036,"una":8037,"Ġstret":8038,"ĠHo":8039,"Ġ1965":8040,"Ġcompete":8041,"Ġfemales":8042,"Ġrebu":8043,"Ġprinted":8044,"Ġadults":8045,"Ġdrinking":8046,"ĠUmayy":8047,"56":8048,"pires":8049,"rat":8050,"Ġsiege":8051,"ĠSym":8052,"ulating":8053,"ĠLate":8054,"Ġcitizenship":8055,"Ġreserves":8056,"Ġcandidate":8057,"ĠMemorial":8058,"Ġphilosophers":8059,"ĠTemple":8060,"ÉĽ":8061,"that":8062,"ĠMr":8063,"endment":8064,"ĠKansas":8065,"Ġintense":8066,"Ġ1951":8067,"Ġphrase":8068,"icks":8069,"celer":8070,"unes":8071,"ethe":8072,"ista":8073,"istence":8074,"rie":8075,"Ġvoting":8076,"Ġkids":8077,"ĠHebrew":8078,"Ġpassing":8079,"Ġhabitat":8080,"Des":8081,"Ġda":8082,"ĠSlov":8083,"ĠMaster":8084,"Ġwhites":8085,"ĠDer":8086,"Ġproclaimed":8087,"orship":8088,"grade":8089,"ĠIndones":8090,"cycl":8091,"Ġstring":8092,"Ġgeographical":8093,"klin":8094,"Ġconsecutive":8095,"tar":8096,"esters":8097,"action":8098,"techn":8099,"Ġdecis":8100,"Ġgoes":8101,"ĠAbout":8102,"Ġburied":8103,"Ġpanel":8104,"Ġmathematical":8105,"Ġchallenge":8106,"Ġhence":8107,"Ġbed":8108,"omans":8109,"Ġrub":8110,"Ġhero":8111,"Ġintent":8112,"Ġresigned":8113,"Ġdisag":8114,"Ġcalling":8115,"Ġmolecular":8116,"Ġbanned":8117,"ĠNich":8118,"ĠLar":8119,"sey":8120,"Ġ1860":8121,"ĠHead":8122,"ĠBeat":8123,"Ġorganic":8124,"Ġinvestigation":8125,"Ġinfection":8126,"ĠChampionship":8127,"West":8128,"Ġur":8129,"room":8130,"ĠAuth":8131,"istent":8132,"ĠJones":8133,"Ġcharges":8134,"Ġ1962":8135,"Ġepic":8136,"Ġdeposits":8137,"Å«":8138,"irts":8139,"ĠWomen":8140,"ibilities":8141,"ĠVan":8142,"Ġacres":8143,"ĠOnce":8144,"Ġcontinuing":8145,"Ġframe":8146,"Ġteachings":8147,"ĠPennsylvania":8148,"Ã£":8149,"Ġbes":8150,"Ġfly":8151,"Ġtools":8152,"olve":8153,"idel":8154,"rior":8155,"ĠFront":8156,"ologically":8157,"atively":8158,"Ġcooking":8159,"rives":8160,"Ġsinging":8161,"forced":8162,"Ġmorph":8163,"ĠSimilarly":8164,"Ġoverwhel":8165,"asi":8166,"riend":8167,"ĠYang":8168,"Ġmetab":8169,"ocking":8170,"adesh":8171,"hejiang":8172,"Ġpunk":8173,"ĠPoly":8174,"ifies":8175,"Ġlandsc":8176,"Ġsuccession":8177,"Ġthinking":8178,"Ġrevolutionary":8179,"Ġundergraduate":8180,"IV":8181,"Ġmap":8182,"ĠNBC":8183,"Ġyield":8184,"ĠReformation":8185,"Ġentities":8186,"Ġwarfare":8187,"ĠProv":8188,"Ġdiscussed":8189,"Ġslowly":8190,"Ġopportunities":8191,"ĠCaesar":8192,"Ġprepared":8193,"Ġtrend":8194,"?]":8195,"hus":8196,"oid":8197,"Ð¸":8198,"Ġaf":8199,"ilight":8200,"emed":8201,"Ġpossibility":8202,"ĠArea":8203,"Mac":8204,"jan":8205,"Ġtoxic":8206,"ette":8207,"abited":8208,"rice":8209,"ikh":8210,"ĠMayor":8211,"Ġcivilians":8212,"Ġemployment":8213,"Ġcommittee":8214,"Ġdistinguish":8215,"SE":8216,"Ðµ":8217,"herent":8218,"Ġduties":8219,"ĠAud":8220,"oto":8221,"ĠDam":8222,"ĠLaser":8223,"Ġgrass":8224,"Ġattached":8225,"Ġinvention":8226,"Ġacids":8227,"Ġ95":8228,"Ġopponents":8229,"Ġrepresentative":8230,"ĠPeace":8231,"Ġfacilit":8232,"ĠWilliams":8233,"Ġdetails":8234,"ĠMethod":8235,"Ġtreated":8236,"party":8237,"Ġvacc":8238,"ĠSumer":8239,"Ġhypothes":8240,"Ġly":8241,"eland":8242,"ĠRob":8243,"ocon":8244,"Ġcolumn":8245,"ĠMugh":8246,"Ġmuseums":8247,"Ġdrawn":8248,"ĠGeorgia":8249,"ĠIndependence":8250,"ĠSomerset":8251,"ĠLiverpool":8252,"oic":8253,"Ġnone":8254,"Ġresemb":8255,"Ġmetals":8256,"Ġpromin":8257,"ĠCaribbean":8258,"hemical":8259,"Ġpubs":8260,"Ġfrequencies":8261,"Ġswit":8262,"Ġrebels":8263,"Ġdeployed":8264,"Ġbreeding":8265,"Ġpaintings":8266,"ĠAlfred":8267,"Other":8268,"lay":8269,"waffe":8270,"ĠAth":8271,"agon":8272,"Ġpermit":8273,"Ġenabled":8274,"Ġdisrupt":8275,"Ġ1952":8276,"Ġloans":8277,"Ġtourists":8278,"Ġdisplayed":8279,"Ġchoose":8280,"lia":8281,"Ġsoutheast":8282,"Ġdyn":8283,"ĠTaylor":8284,"older":8285,"ayana":8286,"apart":8287,"overty":8288,"Ġspot":8289,"Ġ34":8290,"Ġthanks":8291,"ĠArgent":8292,"Ġaccum":8293,"ossible":8294,"Ġorganisation":8295,"ridges":8296,"ĠGuinea":8297,"Ġparticipation":8298,"ĠLiberal":8299,"don":8300,"Ġmental":8301,"ĠBou":8302,"ĠFord":8303,"ĠNazi":8304,"Ġ1917":8305,"izza":8306,"Ġ1830":8307,"Ġoccurring":8308,"contin":8309,"Ġexperimental":8310,"ĠSlavs":8311,"Ġpronunciation":8312,"ĠRailway":8313,"ĠSweden":8314,"Ġenforcement":8315,"Ġcircumstances":8316,"700":8317,"ls":8318,"ĠAFL":8319,"ĠSar":8320,"idency":8321,"ĠFund":8322,"Ġcompens":8323,"ussian":8324,"Ġcapabilities":8325,"Ġprovision":8326,"ĠLeon":8327,"Ġeducated":8328,"Ġreaders":8329,"Ġemergence":8330,"Ġexperiments":8331,"ĠMilitary":8332,"Ġarrested":8333,"Ph":8334,"non":8335,"Ġfaster":8336,"ĠSud":8337,"Ġwaste":8338,"ĠNatural":8339,"Ġbutt":8340,"Ġoperational":8341,"Ġstudying":8342,"ĠFranklin":8343,"Ġfaculty":8344,"Ġdetailed":8345,"Ġparticipate":8346,"Ġsurvive":8347,"ĠGrammy":8348,"ĠMontevideo":8349,"TA":8350,"cers":8351,"Ġcavalry":8352,"Ġreverse":8353,"eme":8354,"ĠOx":8355,"Ġcomplic":8356,"Ġregistered":8357,"ĠShah":8358,"Ġadvis":8359,"ĠTherefore":8360,"Ġyounger":8361,"Ġpiece":8362,"Ġspectrum":8363,"Ġsurrender":8364,"def":8365,"inf":8366,"Ġinner":8367,"Ġhorses":8368,"ĠMend":8369,"ĠMach":8370,"Ġconven":8371,"Ġvin":8372,"Ġinvited":8373,"Ġparas":8374,"Ġbusiest":8375,"ĠAntarctic":8376,"ĠUnicode":8377,"Ø§":8378,"Ġpointed":8379,"Ġbass":8380,"ĠBig":8381,"ĠBah":8382,"ĠDisc":8383,"Ġagg":8384,"pected":8385,"Ġdeliber":8386,"ĠBrother":8387,"Ġcrossed":8388,"ĠNetwork":8389,"Ġpsychology":8390,"ĠDVD":8391,"ĠPtole":8392,"92":8393,"Arab":8394,"Ġibn":8395,"ĠLi":8396,"acts":8397,"aret":8398,"ĠHey":8399,"Ġwriter":8400,"Ġexplos":8401,"Ġfoods":8402,"Ġmotiv":8403,"Ġ1890":8404,"Ġwaters":8405,"ĠNATO":8406,"mese":8407,"arks":8408,"ĠCorn":8409,"Ġconj":8410,"Ġbye":8411,"andescent":8412,"rier":8413,"umer":8414,"Ġneuro":8415,"Ġcapp":8416,"190":8417,"Ġministers":8418,"ĠSciences":8419,"Ġ1957":8420,"Ġskills":8421,"Ġgeomet":8422,"ĠCrime":8423,"Ġappropriate":8424,"Ġadapted":8425,"Ġartificial":8426,"RC":8427,"eda":8428,"Ġhier":8429,"ĠSound":8430,"Ġongoing":8431,"ela":8432,"Ġvice":8433,"ĠArbor":8434,"ĠAnat":8435,"Ġapply":8436,"Ġinterview":8437,"Ġvertical":8438,"ĠSeries":8439,"Ġnucle":8440,"Ġspirit":8441,"Ġrepublican":8442,"ĠUkraine":8443,"Ġpredominantly":8444,"ĠWalter":8445,"Ġneighbouring":8446,"Ġinfringement":8447,"Ð¾":8448,"Ġsalt":8449,"orf":8450,"Ġbron":8451,"Ġreconst":8452,"ĠSix":8453,"iders":8454,"ĠRay":8455,"Ġplain":8456,"Ġrelation":8457,"Ġcanon":8458,"Ġ1943":8459,"Ġcompeting":8460,"Ġadministered":8461,"ĠðŁĻ":8462,"Ġphotos":8463,"burgh":8464,"oque":8465,"ework":8466,"Ġpartially":8467,"Ġdoor":8468,"Ġends":8469,"ĠStudies":8470,"ĠHistoric":8471,"ĠGolden":8472,"Ġexpedition":8473,"ao":8474,"Ġfiber":8475,"irs":8476,"ĠBeng":8477,"etime":8478,"Ġpermitted":8479,"ĠProject":8480,"Ġrespective":8481,"Ġobser":8482,"ĠCountry":8483,"Ġmoral":8484,"Ġlayers":8485,"ĠUkrainian":8486,"sm":8487,"Ġpage":8488,"ila":8489,"ĠFle":8490,"ĠJur":8491,"Ġunity":8492,"Ġyouth":8493,"Ġunderstood":8494,"Ġacceler":8495,"Ġcontrols":8496,"anners":8497,"Ġcurrency":8498,"Ġethn":8499,"Ġhunter":8500,"Ġcollected":8501,"Ġconsequence":8502,"Ġdielectric":8503,"ĠJefferson":8504,"body":8505,"Ãº":8506,"Ġflying":8507,"ĠAk":8508,"ĠPius":8509,"ĠEconomic":8510,"ĠInit":8511,"ĠYuan":8512,"Ġsubcontinent":8513,"Ġviewers":8514,"ĠJournal":8515,"ĠAuthor":8516,"To":8517,"Ã¢":8518,"onies":8519,"Ġsulf":8520,"iture":8521,"ĠRon":8522,"Ġvan":8523,"Ġallied":8524,"Ġmodified":8525,"Ġcoff":8526,"Ġ1936":8527,"ĠArmenians":8528,"Ġconcerts":8529,"Ġenjoyed":8530,"Ġmurder":8531,"hop":8532,"Ġinland":8533,"iland":8534,"Ġorbit":8535,"ulture":8536,"Ġagent":8537,"ĠArmed":8538,"Ġpopulated":8539,"Ġextend":8540,"Ġ160":8541,"Ġadvice":8542,"certain":8543,"ĠWithin":8544,"Ġdifficulty":8545,"Ġwindows":8546,"break":8547,"Ġprisoners":8548,"ĠThuringia":8549,"inh":8550,"Ġhope":8551,"amples":8552,"ĠBoy":8553,"ulum":8554,"ĠElectric":8555,"Ġproceed":8556,"Ġ1912":8557,"aste":8558,"Ġsubsc":8559,"Ġfeud":8560,"ĠForbes":8561,"Ġeconomics":8562,"Ġappeal":8563,"sequently":8564,"Ġbombs":8565,"Ġfarmers":8566,"Ġmolecules":8567,"Ġinvolvement":8568,"uates":8569,"isations":8570,"Ġfal":8571,"Ġdense":8572,"Ġhall":8573,"Ġbeings":8574,"unt":8575,"ĠEle":8576,"ects":8577,"Ġagents":8578,"Ġpope":8579,"Ġregulation":8580,"Ġdesire":8581,"Ġemit":8582,"Ġweekly":8583,"Ġsalary":8584,"ĠTelevision":8585,"Ġdiscipline":8586,"Ġcollapsed":8587,"Ġcappella":8588,"Ġbases":8589,"ĠBowl":8590,"Ġstem":8591,"ĠLine":8592,"ĠJam":8593,"Ġremote":8594,"Ġestate":8595,"ĠSpir":8596,"acteria":8597,"ĠAdam":8598,"Ġfuneral":8599,"Ġtourist":8600,"ĠLuftwaffe":8601,"ji":8602,"press":8603,"ĠTest":8604,"ĠGar":8605,"ighters":8606,"Ġshares":8607,"Ġadhe":8608,"Ġgenet":8609,"Ġcapita":8610,"Ġoccasions":8611,"Ġ1942":8612,"iamond":8613,"Ġterritorial":8614,"Ġcrimes":8615,"Ġ1870":8616,"Ġclearly":8617,"Ġconventional":8618,"onsored":8619,"disc":8620,"Ġfurn":8621,"icenna":8622,"oub":8623,"ĠSet":8624,"oln":8625,"Ġannivers":8626,"annels":8627,"Ġheads":8628,"Ġpriest":8629,"Ġmaintaining":8630,"Ġemergency":8631,"Ġavoided":8632,"Ġeasy":8633,"ĠHollywood":8634,"ĠMercury":8635,"Ġstopped":8636,"lass":8637,"Ġcited":8638,"orer":8639,"aly":8640,"icular":8641,"igin":8642,"ĠMTV":8643,"Ġalleg":8644,"iva":8645,"Ġprev":8646,"inding":8647,"Ã©n":8648,"Ġ1955":8649,"Ġhunters":8650,"Ġannexed":8651,"Ñģ":8652,"Ġtied":8653,"Ġsort":8654,"ĠSab":8655,"acular":8656,"Ġremember":8657,"Ġstands":8658,"Ġnationalism":8659,"Ġ1937":8660,"Ġjudg":8661,"Ġcodes":8662,"ĠDisney":8663,"Ġpreserved":8664,"ĠEritrea":8665,"Ġsacrifice":8666,"cription":8667,"dam":8668,"wid":8669,"Ġsand":8670,"Ġsave":8671,"ĠAgency":8672,"ĠPass":8673,"ĠWild":8674,"Ġrice":8675,"Ġundert":8676,"Ġsigns":8677,"Ġextract":8678,"arma":8679,"ĠBroadway":8680,"ĠTerritory":8681,"ĠFIFA":8682,"Ġtests":8683,"Ġcosm":8684,"asthan":8685,"Ġdin":8686,"Ġhi":8687,"Ġhits":8688,"uten":8689,"rome":8690,"Ġchance":8691,"aga":8692,"ĠHeart":8693,"Ġremark":8694,"Ġexposed":8695,"Ġdivor":8696,"raining":8697,"Ġconception":8698,"Ġvisiting":8699,"ĠAndrew":8700,"ĠSky":8701,"Ġpicture":8702,"Com":8703,"uing":8704,"isition":8705,"Ġflex":8706,"Ġduty":8707,"usually":8708,"ods":8709,"ĠInn":8710,"Ġoverth":8711,"Ġinfantry":8712,"ucks":8713,"incoln":8714,"ĠOttomans":8715,"ĠMadrid":8716,"ĠMean":8717,"ĠBurma":8718,"Ġatmosphere":8719,"91":8720,"Ġahead":8721,"icip":8722,"icts":8723,"Ġdual":8724,"umed":8725,"ĠLet":8726,"udson":8727,"Ġgrade":8728,"Ġ1954":8729,"Ġdiscussion":8730,"track":8731,"ĠAlsace":8732,"ĠAdministration":8733,"PS":8734,"aren":8735,"oes":8736,"Ġsend":8737,"roe":8738,"ĠPoint":8739,"Ġalumn":8740,"employ":8741,"Ġcomic":8742,"atican":8743,"Ġpatients":8744,"Ġ1931":8745,"Ġeveryday":8746,"Ġcommerce":8747,"ĠExecutive":8748,"Ġcorporate":8749,"Ġencoding":8750,"mic":8751,"Îµ":8752,"inite":8753,"ĠNik":8754,"Ġinterface":8755,"Ġimmun":8756,"Ġancestors":8757,"ĠâĤ¬":8758,"Mus":8759,"har":8760,"later":8761,"Ġfilled":8762,"ĠSpect":8763,"ĠCas":8764,"ĠCel":8765,"Ġimag":8766,"Ġ1840":8767,"Ġsubt":8768,"Ġmining":8769,"Ġowner":8770,"Ġsouthwest":8771,"Ġmanufactured":8772,"Ġcapacitors":8773,"ĠMountain":8774,"Ġengineers":8775,"Ġvillages":8776,"free":8777,"onent":8778,"Ġmouth":8779,"ĠSina":8780,"Ġgather":8781,"ĠPy":8782,"ogether":8783,"Ġnoise":8784,"Ġprint":8785,"Another":8786,"Ġcustoms":8787,"Ġmagnetic":8788,"Ġabstract":8789,"auc":8790,"rating":8791,"Ġx":8792,"Ġwitness":8793,"Ġpir":8794,"ĠIl":8795,"ĠGa":8796,"Ġchick":8797,"Ġnotion":8798,"ĠVatican":8799,"ensively":8800,"Ġ37":8801,"ĠEnergy":8802,"ĠMedicine":8803,"Ġargues":8804,"Ġprofessor":8805,"Ġhoriz":8806,"Ġdangerous":8807,"Ġtropical":8808,"Ġoh":8809,"Ġinput":8810,"urally":8811,"Ġchose":8812,"Ġmyst":8813,"Ġchildhood":8814,"ruguay":8815,"Ġlibr":8816,"ĠRhine":8817,"ĠMetropolitan":8818,"Ġbriefly":8819,"ĠLady":8820,"ĠAthens":8821,"bec":8822,"lived":8823,"icide":8824,"amework":8825,"ĠRoll":8826,"Ġworst":8827,"ĠThose":8828,"Ġweaken":8829,"Ġblocks":8830,"Ġextension":8831,"Ġadding":8832,"ynthe":8833,"ginning":8834,"Ġdescription":8835,"Ġpainting":8836,"control":8837,"ĠMPEG":8838,"Ġasthma":8839,"Ġencourage":8840,"Ġ+":8841,"ĠTurn":8842,"Ġalter":8843,"ĠDJ":8844,"abs":8845,"Ġabroad":8846,"Ġassault":8847,"Ġ46":8848,"ĠEngine":8849,"Ã©s":8850,"Ġgenerations":8851,"Ġmarks":8852,"Ġlooking":8853,"ĠFranco":8854,"Ġtraveled":8855,"Ã¡n":8856,"Ġprevented":8857,"Ġdoctr":8858,"Ġvocabulary":8859,"Ġcruc":8860,"Ġabsorbed":8861,"ĠIndustrial":8862,"Ġfranchise":8863,"bat":8864,"Ġeye":8865,"ĠMetro":8866,"ĠPriv":8867,"astics":8868,"Ġclergy":8869,"Ġ1922":8870,"Ġ1861":8871,"ĠNorfolk":8872,"Ġinteractions":8873,"Ġphilosopher":8874,"Ġownership":8875,"ãĥ":8876,"ĠGarden":8877,"occ":8878,"ĠUruguay":8879,"arting":8880,"apes":8881,"ipel":8882,"Ã©t":8883,"Ġfacto":8884,"ĠâĪĴ":8885,"ĠContinental":8886,"Ġstrike":8887,"ĠPrior":8888,"Ġpoverty":8889,"stan":8890,"unch":8891,"Ġpartner":8892,"Ġ1800":8893,"Ġtransit":8894,"Ġlanded":8895,"Ġdaylight":8896,"Ġeverything":8897,"Ġdisplays":8898,"Ġvoters":8899,"Ġprinting":8900,"Ġwrestler":8901,"Ġnutri":8902,"fe":8903,"isan":8904,"Ġmild":8905,"ĠCre":8906,"ĠLama":8907,"Ġexile":8908,"Ġ43":8909,"Ġperspective":8910,"ĠRussell":8911,"Ġvalid":8912,"ĠOthers":8913,"Ġimmune":8914,"Ġadolescent":8915,"Ġpraised":8916,"Ġnegotiations":8917,"ĠSicily":8918,"\";":8919,"However":8920,"OS":8921,"iw":8922,"Ġstood":8923,"Ġchannels":8924,"Ġcomprising":8925,"Ġboom":8926,"Ġinfrared":8927,"Ġdefine":8928,"rowing":8929,"Ġcurric":8930,"Ġprotesters":8931,"Ġdevast":8932,"ĠQueens":8933,"Ġkinds":8934,"Ġconservation":8935,"Ġprovincial":8936,"Despite":8937,"itance":8938,"Ġhockey":8939,"ĠSchol":8940,"ĠLincoln":8941,"Ġkit":8942,"oster":8943,"ĠSpace":8944,"Ġfactories":8945,"ĠArabs":8946,"Ġaccommod":8947,"Ġcardinal":8948,"Ġrecovered":8949,"98":8950,"real":8951,"athered":8952,"ĠTal":8953,"ĠSant":8954,"olics":8955,"ĠPo":8956,"perors":8957,"Ġshar":8958,"Ġspaces":8959,"Ġdesk":8960,"Ġprince":8961,"Ġthemes":8962,"Ġflo":8963,"ĠDean":8964,"ĠShow":8965,"ĠJehovah":8966,"ĠNobel":8967,"Ġunsuccess":8968,"43":8969,"eor":8970,"iro":8971,"making":8972,"ĠGil":8973,"Ġdeemed":8974,"Ġexempt":8975,"Ġworn":8976,"ĠConc":8977,"Ġobst":8978,"Ġbreaking":8979,"ĠPolit":8980,"Ġlayer":8981,"Ġcycl":8982,"Ġsegments":8983,"Ġphenomenon":8984,"ĠHungary":8985,"Ġsimultaneously":8986,"Ġanniversary":8987,"Port":8988,"owed":8989,"sea":8990,"ĠStep":8991,"Ġ42":8992,"ĠSamuel":8993,"Ġimprovements":8994,"Ġsynthetic":8995,"Ġvehicle":8996,"ĠOxford":8997,"itan":8998,"ĠTang":8999,"ĠEton":9000,"Ġatoms":9001,"ĠOS":9002,"rene":9003,"Ġcolour":9004,"Ġ52":9005,"ĠMarg":9006,"Ġ1938":9007,"Ġ1959":9008,"ĠAbu":9009,"Ġstructural":9010,"ĠHispanic":9011,"Ġdelayed":9012,"ĠBurmese":9013,"ĠForest":9014,"Ġatomic":9015,"ĠAffairs":9016,"Or":9017,"erg":9018,"Ġcats":9019,"Ġfit":9020,"Ġnit":9021,"ĠMuch":9022,"otype":9023,"Ġcentered":9024,"Ġ1850":9025,"Ġtraits":9026,"hess":9027,"Ġimpossible":9028,"ĠZhejiang":9029,"ĠMarath":9030,"ficial":9031,"Ġinstrumental":9032,"ĠLibyan":9033,"ĠWindsor":9034,"Ġbroadcasting":9035,"Ġsymbols":9036,"Ġeliminated":9037,"ĠTajikistan":9038,"ĠAnglican":9039,"Ã£o":9040,"AA":9041,"gage":9042,"uct":9043,"ĠIce":9044,"ĠHit":9045,"ĠNov":9046,"Ġvision":9047,"Ġheard":9048,"Ġhello":9049,"rics":9050,"Ġju":9051,"Ġfiled":9052,"Ġdeclining":9053,"Ġcert":9054,"Ġcapacitor":9055,"ĠBrah":9056,"Ġdiarr":9057,"communications":9058,"ĠBelgium":9059,"ĠSudan":9060,"rand":9061,"ĠTrib":9062,"ilation":9063,"ĠHudson":9064,"Ġcompound":9065,"Ġraw":9066,"athan":9067,"Ġ49":9068,"Ġentering":9069,"Ġretired":9070,"Ġrevival":9071,"Ġarchitects":9072,"Ġimplementation":9073,"Ġarrangement":9074,"ĠTwilight":9075,"Ġreplacement":9076,"din":9077,"ystem":9078,"Ġaest":9079,"Ġsons":9080,"Ġtower":9081,"ige":9082,"ĠGor":9083,"ĠLen":9084,"Ġrum":9085,"ĠChannel":9086,"uez":9087,"phal":9088,"ĠLeban":9089,"Ġsurpass":9090,"Ġreleases":9091,"Ġpropag":9092,"Ġmaintains":9093,"Ġmerc":9094,"Ġsubstance":9095,"Ġpotentially":9096,"Ġwithdrew":9097,"Ġpremi":9098,"Ġmessage":9099,"Ġsubsidiary":9100,"Ġcrowd":9101,"Ġannounce":9102,"gather":9103,"omo":9104,"Ġhobb":9105,"ĠIll":9106,"Ġgrain":9107,"Ġunemploy":9108,"Ġintention":9109,"outheastern":9110,"ieth":9111,"ruck":9112,"ampion":9113,"Ġupd":9114,"Ġassimil":9115,"Ġ51":9116,"ugby":9117,"ĠAdv":9118,"Ġbiology":9119,"Ġsentence":9120,"Ġspecialized":9121,"Ġciting":9122,"Ġinfectious":9123,"ĠInterstate":9124,"Ġtransformed":9125,"ĠBrooklyn":9126,"52":9127,"hea":9128,"Ġrely":9129,"Ġgathered":9130,"ĠRam":9131,"ĠOri":9132,"Ġlect":9133,"ĠVill":9134,"ĠVII":9135,"Ġdisappe":9136,"Ġpregn":9137,"Ġgoverning":9138,"Ġ800":9139,"Ġeleven":9140,"borne":9141,"Ġminorities":9142,"Ġmeetings":9143,"Ġmissions":9144,"Ġinhabited":9145,"Ġbottom":9146,"mont":9147,"Ġtheor":9148,"ĠBor":9149,"ĠBase":9150,"ĠPap":9151,"Ġunless":9152,"ighting":9153,"Ġtrains":9154,"Ġcivilization":9155,"gressive":9156,"German":9157,"atom":9158,"itime":9159,"aran":9160,"Ġonwards":9161,"ĠPA":9162,"opter":9163,"Ġsuit":9164,"Ġchairman":9165,"mann":9166,"Ġopera":9167,"Ġpersonality":9168,"Ġ1946":9169,"Ã¼r":9170,"ĠEthiop":9171,"Ġvinyl":9172,"ĠAnatol":9173,"%).":9174,"vi":9175,"Îº":9176,"à¤":9177,"edia":9178,"ĠHa":9179,"overed":9180,"Ġcancer":9181,"osevel":9182,"Ġmonks":9183,"Ġcorner":9184,"Ġlesser":9185,"Ġready":9186,"ospel":9187,"ĠExamples":9188,"Ġteachers":9189,"Ġpunika":9190,"Ġextinct":9191,"erbai":9192,"ĠDominican":9193,"Ġpublishing":9194,"Ġinternationally":9195,"ĠLaserDisc":9196,"aparte":9197,"IN":9198,"bird":9199,"ĠSher":9200,"Ġbear":9201,"ĠHome":9202,"Ġalloys":9203,"ĠColor":9204,"Ġidentification":9205,"Ġacceptance":9206,"ĠTurks":9207,"Ġmixture":9208,"ĠControl":9209,"Ġkeeping":9210,"Ġmillions":9211,"Ġadolescence":9212,"Ġcommissioned":9213,"Ġinitiative":9214,"Ġpesticides":9215,"osevelt":9216,"OM":9217,"cow":9218,"Ġbills":9219,"ĠCer":9220,"ĠMain":9221,"osph":9222,"ĠGene":9223,"ĠFun":9224,"orted":9225,"Ġcler":9226,"Ġgrid":9227,"aws":9228,"ĠArtic":9229,"Ġphyl":9230,"ĠWhy":9231,"Ġafford":9232,"Ġsimilarly":9233,"ĠMedia":9234,"Ġabsence":9235,"ragon":9236,"Ġcrossing":9237,"Ġoptical":9238,"ĠCaucas":9239,"Ġprompted":9240,"Ġalphabet":9241,"Ġcriteria":9242,"hour":9243,"uria":9244,"iga":9245,"ths":9246,"otte":9247,"ĠKaz":9248,"Ġplus":9249,"Ġovert":9250,"group":9251,"Ġairports":9252,"rivals":9253,"Ġshowing":9254,"Ġdonate":9255,"Ġregardless":9256,"Ġswitch":9257,"Ġexceptions":9258,"ĠMoreover":9259,"ĠÃī":9260,"Ġwildlife":9261,"ĠOpera":9262,"Ġpapers":9263,"Ġmilitia":9264,"Ġaccurate":9265,"Ġchromos":9266,"Ġelaborate":9267,"iast":9268,"ĠMod":9269,"ĠLin":9270,"Ġspin":9271,"Ġincandescent":9272,"ĠProgram":9273,"Ġconfront":9274,"Ġdownlo":9275,"Ġtechnological":9276,"ĠCanal":9277,"Ġcompetitive":9278,"ĠSupp":9279,"Ġcelebration":9280,"ĠCapital":9281,"Ġcorresponding":9282,"ĠKarl":9283,"Ġmunicipalities":9284,"Ġconscious":9285,"53":9286,"lach":9287,"pat":9288,"Ġpump":9289,"ications":9290,"ĠWork":9291,"Ġvit":9292,"Ġrig":9293,"Ġcompact":9294,"Ġdoors":9295,"aceous":9296,"Ġeval":9297,"Ġsomeone":9298,"Ġsubdiv":9299,"Ġindirect":9300,"ovement":9301,"Ġcomplement":9302,"ĠClin":9303,"Ġfreed":9304,"Ġliterally":9305,"ĠMadison":9306,"ĠAzerbai":9307,"urrently":9308,"Ġnickname":9309,"ĠDestiny":9310,"upp":9311,"Ġtouch":9312,"Ġovers":9313,"ĠCape":9314,"ĠIber":9315,"ĠDynasty":9316,"aked":9317,"archy":9318,"Ġmonitor":9319,"ĠShan":9320,"ĠAmb":9321,"Ġplanes":9322,"Ġobjective":9323,"Ġtribal":9324,"ushing":9325,"Ġsynthes":9326,"Ġlinear":9327,"ĠSolar":9328,"Ġfertil":9329,"Ġrefugees":9330,"54":9331,"French":9332,"held":9333,"ĠLower":9334,"ĠLanc":9335,"ĠOl":9336,"apa":9337,"awi":9338,"Ġflame":9339,"Ġmanif":9340,"Ġentitled":9341,"ĠCatholics":9342,"Ġrecognize":9343,"Ġadopt":9344,"Ġdominance":9345,"Ġconvert":9346,"Ġoxide":9347,"amicom":9348,"Ġdepartments":9349,"Hispanic":9350,"ĠIndonesia":9351,"Im":9352,"Pro":9353,"Ġmac":9354,"ĠHal":9355,"ĠGh":9356,"ante":9357,"agar":9358,"ĠStan":9359,"Ġdiscontin":9360,"Ġrecru":9361,"Ġattraction":9362,"Ġmode":9363,"Ġmonop":9364,"Ġextending":9365,"asonic":9366,"Ġlegally":9367,"asha":9368,"Ġantuk":9369,"Ġrevol":9370,"Ġload":9371,"ĠðŁĳ":9372,"Ġliteracy":9373,"ukary":9374,"oult":9375,"Ġantennas":9376,"Ġattendance":9377,"Ġshifted":9378,"Ġmerchants":9379,"ĠDowntown":9380,"Ġenacted":9381,"67":9382,"He":9383,"dy":9384,"Ġ..":9385,"Ġtended":9386,"apore":9387,"Ġraids":9388,"rane":9389,"Ġtermed":9390,"Ġpublications":9391,"ĠAtt":9392,"Ġ1876":9393,"ĠRoosevelt":9394,"Ġsatisf":9395,"Ġparliamentary":9396,"Ġexpanding":9397,"Greek":9398,"friend":9399,"reas":9400,"ĠBang":9401,"romagn":9402,"Ġ1919":9403,"Ġ1913":9404,"ivic":9405,"Ġuns":9406,"Ġclin":9407,"Ġsupplement":9408,"Ġentity":9409,"ventually":9410,"ĠPhys":9411,"ĠApost":9412,"Ġavailability":9413,"ĠCongo":9414,"Ġfalling":9415,"holders":9416,"Ġmissile":9417,"ĠAvicenna":9418,"Ġforests":9419,"âŁ":9420,"ench":9421,"ĠCret":9422,"ĠPale":9423,"ĠEvery":9424,"about":9425,"ogs":9426,"ĠKu":9427,"ĠKenn":9428,"ĠStra":9429,"tenance":9430,"Ġproducers":9431,"ĠIndies":9432,"Ġedge":9433,"Ġgeographic":9434,"ĠHeritage":9435,"ĠSamoa":9436,"ĠHoward":9437,"Ġbitumen":9438,"Tibet":9439,"Ġbrows":9440,"ĠTun":9441,"ĠMall":9442,"ĠPet":9443,"ĠFederation":9444,"Ġsharing":9445,"Ġoverl":9446,"Ġconson":9447,"Ġargument":9448,"Ġmarketing":9449,"Ġinterested":9450,"Ġfemin":9451,"Ġlinguistic":9452,"Ġcabinet":9453,"Ġsuspended":9454,"iblical":9455,"ĠEverton":9456,"Ġsectors":9457,"Af":9458,"VA":9459,"bi":9460,"fort":9461,"nings":9462,"ÅĤ":9463,"ĠMas":9464,"esty":9465,"ĠDi":9466,"erect":9467,"Ġrecip":9468,"Ġremainder":9469,"Ġretreat":9470,"ĠSoviets":9471,"Ġdifficulties":9472,"Ġ1848":9473,"Ġbanking":9474,"Ġcollaboration":9475,"ĠBosn":9476,"RI":9477,"ĠHim":9478,"acon":9479,"Ġages":9480,"Ġfollowers":9481,"ierce":9482,"ĠTrust":9483,"Ġtribe":9484,"Chinese":9485,"ĠProtestants":9486,"Ġinfections":9487,"Ġfarming":9488,"ĠIntelligence":9489,"BeyoncÃ©":9490,"ĠDaniel":9491,"Ġacknowledged":9492,"LA":9493,"iaries":9494,"Ġoption":9495,"Ġpit":9496,"Ġpitch":9497,"Ġpushed":9498,"Ġdraft":9499,"leys":9500,"etes":9501,"opl":9502,"ĠHus":9503,"ĠLes":9504,"Ġhelic":9505,"ĠKel":9506,"Ġimper":9507,"Ġdisaster":9508,"lected":9509,"Ġoffensive":9510,"Ġfunded":9511,"Ġfinding":9512,"Ġengineer":9513,"Ġexhibition":9514,"ĠMarshal":9515,"ĠLegisl":9516,"width":9517,"oning":9518,"Ġthor":9519,"Ġgent":9520,"ĠPont":9521,"ĠFried":9522,"ĠJon":9523,"ardo":9524,"Ġunderlying":9525,"Ġmaintenance":9526,"Ġdemands":9527,"Ġtemples":9528,"Ġlistening":9529,"ĠBarb":9530,"ospitals":9531,"Ġdonated":9532,"ĠHarbor":9533,"Ġ1871":9534,"Christ":9535,"Ġboundary":9536,"ĠHotel":9537,"ĠRajasthan":9538,"Ġvenues":9539,"ĠRoger":9540,"ĠMeanwhile":9541,"âŁ©":9542,"96":9543,"Ex":9544,"ko":9545,"zed":9546,"Ġcort":9547,"ĠCit":9548,"ĠCirc":9549,"thood":9550,"ĠBishop":9551,"utor":9552,"Ġseized":9553,"ipher":9554,"avia":9555,"Ġresign":9556,"Ġformats":9557,"ailand":9558,"Ġassert":9559,"ĠWarner":9560,"Ġerror":9561,"Ġzero":9562,"Ġmanufacture":9563,"Ġfellow":9564,"Ġnominated":9565,"Ġdiagn":9566,"Ġtemporarily":9567,"ĠDalai":9568,"].":9569,"reated":9570,"Ġwel":9571,"Ġwrong":9572,"Ġbars":9573,"Ġeating":9574,"ĠSaf":9575,"uti":9576,"ĠHz":9577,"ĠHills":9578,"uma":9579,"ĠDor":9580,"Ġclust":9581,"ĠVilla":9582,"ĠYe":9583,"ĠLeader":9584,"Ġwilling":9585,"ĠMedieval":9586,"book":9587,"Ġcommercially":9588,"Ġlogic":9589,"á¹£":9590,"Ġpersecution":9591,"Ġsap":9592,"ĠSon":9593,"ĠLim":9594,"ĠKnow":9595,"Ġoutd":9596,"Ġinterven":9597,"Ġmedal":9598,"ĠChristmas":9599,"Ġprofound":9600,"ĠMaur":9601,"Ġrebellion":9602,"Ġcomposers":9603,"Ġpollution":9604,"Ġreviews":9605,"ĠDefense":9606,"Ġlifetime":9607,"Ġcharts":9608,"ĠMoscow":9609,"ĠNicholas":9610,"Ġoverwhelming":9611,"rator":9612,"wick":9613,"Ġcou":9614,"Ġwing":9615,"Ġpin":9616,"Ġnights":9617,"ĠAqu":9618,"ĠSav":9619,"ĠCBS":9620,"ados":9621,"ocent":9622,"Ġshr":9623,"Ġunderground":9624,"ioch":9625,"Ġ85":9626,"anner":9627,"Ġinsurance":9628,"Ġanticip":9629,"Ġyourself":9630,"Ġ1934":9631,"Ġassociations":9632,"Ġstronger":9633,"attered":9634,"Ġindicates":9635,"Ġbroadcasts":9636,"Ġpromoting":9637,"Ġantibiotic":9638,"ĠUpon":9639,"ĠBuckingham":9640,"four":9641,"gans":9642,"je":9643,"ĠÄ":9644,"Ł¨":9645,"asy":9646,"ĠMali":9647,"irms":9648,"Ġstability":9649,"ĠOcc":9650,"Ġchlor":9651,"ameter":9652,"ĠKir":9653,"Ġcomprises":9654,"Ġadm":9655,"Ġreson":9656,"Ġpref":9657,"Ġempires":9658,"ĠScout":9659,"Ġradar":9660,"Ġreturning":9661,"ĠImm":9662,"Ġaccounted":9663,"Ġshipyard":9664,"Ġvictories":9665,"ĠâŁ¨":9666,"Ġultimate":9667,"Ġremoval":9668,"Ġpharmaceutical":9669,"Ðº":9670,"Ġmos":9671,"Ġdrives":9672,"ĠSah":9673,"ulner":9674,"ĠHon":9675,"ermo":9676,"okk":9677,"Ġaccident":9678,"Ġreferring":9679,"Ġratings":9680,"Ġlicense":9681,"Ġheadquartered":9682,"Ġrenewable":9683,"ĠSaxony":9684,"Ġgranting":9685,"iracial":9686,"Ġstimul":9687,"Ġprevalent":9688,"ĠBengal":9689,"fts":9690,"rez":9691,"atal":9692,"ĠAmer":9693,"Ġunified":9694,"ppen":9695,"Ġnotice":9696,"angered":9697,"Ġaged":9698,"Ġgovernance":9699,"Ġorganised":9700,"Ġfactory":9701,"ĠAllies":9702,"Ġpriests":9703,"Ġrocket":9704,"Ġ1925":9705,"Ġancestor":9706,"ĠRico":9707,"Ġdelivered":9708,"ĠCambridge":9709,"Ġnineteenth":9710,"Ġalumni":9711,"South":9712,"mi":9713,"oil":9714,"xis":9715,"Ġtensions":9716,"anning":9717,"alism":9718,"Ġreaches":9719,"empl":9720,"ĠFamicom":9721,"ĠNow":9722,"ĠLuc":9723,"Ġvib":9724,"olds":9725,"Ġvariants":9726,"Ġcoach":9727,"Ġenthus":9728,"ypically":9729,"Ġadvances":9730,"Ġpatents":9731,"Ġsugar":9732,"Ġcheck":9733,"Ġstrengthe":9734,"Ġantibacterial":9735,"Ġdecrease":9736,"Ġintegration":9737,"Ġrecovery":9738,"missions":9739,"ĠIndependent":9740,"Ġlicensed":9741,"Ġmillennium":9742,"CD":9743,"aver":9744,"gam":9745,"Äĩ":9746,"asso":9747,"Ġholid":9748,"Ġlux":9749,"ĠTen":9750,"Ġstayed":9751,"ĠDur":9752,"Ġsud":9753,"ĠLittle":9754,"Ġrow":9755,"tees":9756,"Ġaccord":9757,"Ġimped":9758,"Ġ68":9759,"Ġdepression":9760,"Ġprogramme":9761,"Ġconcerning":9762,"Ġframework":9763,"Ġbankrupt":9764,"Ġcategor":9765,"Ġdissolved":9766,"Ġignored":9767,"ĠManchu":9768,"tebrates":9769,"Ġá¼":9770,"Ġfalse":9771,"Ġfulf":9772,"Ġmines":9773,"Ġduration":9774,"leum":9775,"ĠCroatian":9776,"aments":9777,"acle":9778,"Ġrating":9779,"Ġjazz":9780,"Ġspons":9781,"Ġattending":9782,"ointing":9783,"Ġhelping":9784,"Ġcrude":9785,"etroleum":9786,"ĠDigital":9787,"Ġpossession":9788,"Ġlaboratory":9789,"ĠSingapore":9790,"adic":9791,"otion":9792,"ouns":9793,"perm":9794,"Ġpresidency":9795,"ĠWhit":9796,"Ġdevoted":9797,"Ġaccounting":9798,"ĠCalvin":9799,"Ġbulk":9800,"Ġinteraction":9801,"Ġrecommend":9802,"Portug":9803,"bing":9804,"zlach":9805,"ĠTel":9806,"unny":9807,"weight":9808,"Ġintervention":9809,"Ġsurf":9810,"Ġscientist":9811,"Ġfacing":9812,"Ġmechanics":9813,"Ġ1854":9814,"ĠCaptain":9815,"ĠServices":9816,"Ġdimensions":9817,"brid":9818,"vo":9819,"Ġuncertain":9820,"cession":9821,"inking":9822,"Ġpromised":9823,"ĠJuan":9824,"Ġcircuits":9825,"Ġarranged":9826,"Ġchampionship":9827,"Ġelder":9828,"Ġinherited":9829,"ĠSpectre":9830,"58":9831,"Ad":9832,"Ġbat":9833,"Ġdeities":9834,"quir":9835,"Ġunknown":9836,"Ġenviron":9837,"Ġacted":9838,"Ġdepicted":9839,"Ġparad":9840,"Ġsignificance":9841,"Ġengage":9842,"Ġepid":9843,"osaurs":9844,"ĠAntioch":9845,"Ġdefinitions":9846,"Ġspeeds":9847,"Ġenvironments":9848,"94":9849,"night":9850,"offic":9851,"vol":9852,"Ġmarch":9853,"enter":9854,"Ġlights":9855,"ĠCrus":9856,"Ġgate":9857,"ĠPic":9858,"ĠLat":9859,"ĠJord":9860,"Ġusual":9861,"ective":9862,"Ġadmitted":9863,"Ġdesired":9864,"Ġdefining":9865,"thew":9866,"Ġterminal":9867,"Ġfinance":9868,"Ġeffectiveness":9869,"Ġdeclaration":9870,"Ġcollectively":9871,"Ġconsequences":9872,"Ġinnovation":9873,"elda":9874,"Ġsolely":9875,"Ġboroughs":9876,"Ġfossil":9877,"Ġbuttons":9878,"Ġhobbies":9879,"Ġsudden":9880,"care":9881,"jud":9882,"oli":9883,"ĠEli":9884,"ĠFive":9885,"Ġspend":9886,"amps":9887,"Ġ48":9888,"Ġconstitute":9889,"Ġparticles":9890,"Ġrequiring":9891,"Ġpredator":9892,"Ġcovering":9893,"ĠHarvard":9894,"Ġconsistent":9895,"Ġcollections":9896,"Ġtransported":9897,"ĠWeek":9898,"ulsion":9899,"Ġdecorated":9900,"etheless":9901,"oqu":9902,"orient":9903,"Ġfra":9904,"ĠSatur":9905,"ĠCP":9906,"aining":9907,"Ġemperors":9908,"Ġmusician":9909,"ĠZelda":9910,"iking":9911,"Ġcoronation":9912,"Ġparticipants":9913,"Ġgolden":9914,"Ġseemed":9915,"ĠSteve":9916,"Ġepisode":9917,"Ġflourished":9918,"Ġheterosexual":9919,"zlachta":9920,"two":9921,"wa":9922,"Ġeighth":9923,"ĠTam":9924,"ĠHor":9925,"erald":9926,"Ġassign":9927,"ientific":9928,"Ġeditions":9929,"ĠMarx":9930,"Ġfindings":9931,"Ġreactions":9932,"Ġmobil":9933,"Ġminimal":9934,"ĠCEO":9935,"Ġconstituted":9936,"51":9937,"Pr":9938,"bro":9939,"Ġrib":9940,"Ġbin":9941,"Ġlose":9942,"ules":9943,"0000":9944,"ears":9945,"Ġintellig":9946,"Ġscored":9947,"Ġmoderate":9948,"Ġtraced":9949,"exp":9950,"Ġnamely":9951,"Ġpredation":9952,"Ġobservation":9953,"Ġhotel":9954,"Ġpsychological":9955,"Ġrenewed":9956,"SCII":9957,"General":9958,"bishop":9959,"Ġå":9960,"Ġomn":9961,"ourag":9962,"ĠSN":9963,"uras":9964,"ĠISO":9965,"ĠBand":9966,"ĠDuc":9967,"Ġsuitable":9968,"Ġabund":9969,"Ġ57":9970,"Ġpreserve":9971,"Ġobvious":9972,"ĠPrincip":9973,"Ġhumanity":9974,"ĠMarine":9975,"common":9976,"atinum":9977,"Ġautumn":9978,"Ġemerging":9979,"Ġseriously":9980,"Ġrotor":9981,"ĠMacedon":9982,"Ġexplicitly":9983,"ĠUmayyad":9984,"esis":9985,"Ġfill":9986,"ĠMovement":9987,"otten":9988,"ĠPel":9989,"ĠNaz":9990,"ĠLiter":9991,"Ġseed":9992,"ĠKings":9993,"ĠYet":9994,"Ġpoliticians":9995,"ĠPradesh":9996,"Ġagreements":9997,"Ġfunctional":9998,"achev":9999,"Ġencountered":10000,"ĠKiev":10001,"Ġinterpreted":10002,"ĠMughal":10003,"Hz":10004,"log":10005,"rors":10006,"Ġmigrated":10007,"Ġlists":10008,"ĠTB":10009,"Ġbeach":10010,"Ġstruck":10011,"ĠRoc":10012,"ĠDub":10013,"Ġexports":10014,"Ġshore":10015,"Ġenorm":10016,"neg":10017,"Ġexpelled":10018,"iox":10019,"Ġtraders":10020,"Ġ1907":10021,"Ġdisputed":10022,"Ġcontinuously":10023,"Ġgetting":10024,"Ġglacier":10025,"ĠJulian":10026,"Ġcognitive":10027,"ĠHitler":10028,"erts":10029,"levard":10030,"ilst":10031,"Ġgardens":10032,"osystem":10033,"ĠGaul":10034,"ĠFlo":10035,"ĠFuj":10036,"oute":10037,"Ġabbey":10038,"ĠVis":10039,"Ġnewer":10040,"Ġspecified":10041,"Ġcargo":10042,"Ġlegend":10043,"Ġstatistical":10044,"Ġexploration":10045,"ĠDesert":10046,"Ġethnicity":10047,"ĠMahayana":10048,"Ġescape":10049,"Ġautonomous":10050,"Ġtheoretical":10051,"Ġprayer":10052,"ĠXXIII":10053,"okkien":10054,"Ġpy":10055,"Ġfired":10056,"ĠAle":10057,"ilton":10058,"chron":10059,"irable":10060,"ĠPit":10061,"opher":10062,"ĠGro":10063,"ĠNord":10064,"Ġproof":10065,"Ġvital":10066,"ĠOt":10067,"ĠStore":10068,"ĠAnth":10069,"Ġthereafter":10070,"Ġcapability":10071,"Ġprovisions":10072,"Ġ66":10073,"ocked":10074,"ĠTrad":10075,"Ġ1929":10076,"Ġpeaceful":10077,"Ġwearing":10078,"urricane":10079,"government":10080,"'re":10081,"front":10082,"lan":10083,"aton":10084,"inger":10085,"ĠRNA":10086,"Ġhem":10087,"Ġarray":10088,"ĠNewton":10089,"Ġnumbered":10090,"ĠWho":10091,"Ġdemanded":10092,"ĠMarc":10093,"Ġvolumes":10094,"spring":10095,"Ġ1909":10096,"Ġdispute":10097,"Ġprecise":10098,"Ġfairly":10099,"Ġcompatible":10100,"person":10101,"tically":10102,"zone":10103,"ĠRI":10104,"ĠNight":10105,"ĠJiang":10106,"Ġmoves":10107,"Ġleagues":10108,"Ġplastic":10109,"tegr":10110,"Ġestimate":10111,"ĠDecl":10112,"Ġsupports":10113,"Ġnationalist":10114,"often":10115,"ĠBrig":10116,"ephard":10117,"ĠFinland":10118,"Ġbulb":10119,"Ġcongregations":10120,"ĠDemocrats":10121,"Ġseventh":10122,"angelical":10123,"ĠCretaceous":10124,"Sever":10125,"Sax":10126,"Ġerect":10127,"ĠTar":10128,"ĠTok":10129,"ĠForm":10130,"Ġunrest":10131,"enders":10132,"Ġsubmar":10133,"Ġexpense":10134,"ĠDec":10135,"Ġ170":10136,"ĠCommander":10137,"ĠProto":10138,"180":10139,"ĠPlace":10140,"ĠPlaza":10141,"Ġcolonists":10142,"Ġecosystem":10143,"ĠMatthew":10144,"2000":10145,"vation":10146,"Ġtends":10147,"Ġtheater":10148,"Ġbab":10149,"Ġstyl":10150,"ĠHard":10151,"ĠEventually":10152,"Ġvulner":10153,"ĠAround":10154,"Ġunderw":10155,"ĠCommer":10156,"Ġtraces":10157,"ĠSpring":10158,"Ġlegacy":10159,"Ġprofit":10160,"ĠManagement":10161,"Ġarguments":10162,"Ġpainted":10163,"Ġfulltime":10164,"unication":10165,"Ġdemonstration":10166,"Ġcommitment":10167,"ĠPersia":10168,"Ġgrav":10169,"Ġaffiliated":10170,"Ġmicros":10171,"Ġcondemned":10172,"Ġdisagre":10173,"Ġnutrients":10174,"DC":10175,"John":10176,"dem":10177,"Ġtub":10178,"although":10179,"Ġmigrants":10180,"asm":10181,"Ġhill":10182,"ĠCIA":10183,"ĠMaj":10184,"ĠProm":10185,"Ġalumin":10186,"oding":10187,"Ġprosec":10188,"ĠKill":10189,"Ġlock":10190,"Ġcompletion":10191,"Ġrevolt":10192,"Ġjustice":10193,"Ġrealm":10194,"legiate":10195,"Ġchemicals":10196,"ĠOperation":10197,"ĠCypriot":10198,"ĠPictures":10199,"established":10200,"ĠAzerbaijan":10201,"romagnetic":10202,"hire":10203,"Ġfalls":10204,"Ġmir":10205,"Ġtot":10206,"Ġhorm":10207,"ĠBad":10208,"ĠBav":10209,"ĠPact":10210,"empor":10211,"ĠWatch":10212,"ĠJoh":10213,"pled":10214,"ĠAlong":10215,"ĠEnvironment":10216,"Ġfoundations":10217,"Ġ56":10218,"Ġpersu":10219,"Ġlawy":10220,"ĠNeolithic":10221,"ximity":10222,"ĠMacedonian":10223,"ĠSocialist":10224,"formerly":10225,"Ġfruit":10226,"Can":10227,"Man":10228,"Ġsad":10229,"Ġinduct":10230,"Ġped":10231,"Ġbunny":10232,"Ġtowers":10233,"Ġlake":10234,"ilica":10235,"thal":10236,"ĠLie":10237,"udi":10238,"ortheastern":10239,"ĠJin":10240,"Ġraise":10241,"Ġmemb":10242,"Ġentrance":10243,"Ġrelevant":10244,"coming":10245,"Ġconceptual":10246,"shire":10247,"Ġhealthy":10248,"Ġtribute":10249,"Ġdemonstrations":10250,"Ġchemistry":10251,"ĠValencian":10252,"Ġcorporation":10253,"Ġplebe":10254,"Ġapparently":10255,"Ġceased":10256,"ĠGallery":10257,"Ġsquad":10258,"Ġwithdrawal":10259,"Ġstere":10260,"Ġmonasteries":10261,"No":10262,"oons":10263,"Ġtheolog":10264,"alis":10265,"Ġdynast":10266,"Ġhang":10267,"Ġgay":10268,"owing":10269,"otyp":10270,"ĠEight":10271,"ewise":10272,"Ġhearing":10273,"ĠSeven":10274,"Ġ1932":10275,"ĠAbbey":10276,"Ġcelebrations":10277,"Ġadjust":10278,"iconduct":10279,"ĠArchitecture":10280,"Ġdesktop":10281,"Several":10282,"fted":10283,"graph":10284,"ÑĢ":10285,"isi":10286,"Ġhospitals":10287,"ĠDuch":10288,"Ġunpre":10289,"Ġtrust":10290,"Ġraising":10291,"Ġinstruction":10292,"Ġcarb":10293,"Ġpersonally":10294,"Ġadvocated":10295,"Ġhoused":10296,"ĠPatri":10297,"Ġattributes":10298,"brev":10299,"Ġdoubled":10300,"Ġbehaviour":10301,"Ġpatronage":10302,"Ġmanuscripts":10303,"Ġhorizon":10304,"Con":10305,"MI":10306,"Ġfed":10307,"icer":10308,"ami":10309,"uts":10310,"ĠPra":10311,"Ġconceived":10312,"ĠEqu":10313,"Ġproximity":10314,"ĠKash":10315,"Ġneur":10316,"Ġroot":10317,"Ġphosph":10318,"issipp":10319,"Ġorganisations":10320,"ĠRepresent":10321,"Ġequally":10322,"Ġsympt":10323,"Ġtrip":10324,"Ġidealism":10325,"miral":10326,"Ġdramatically":10327,"Ġpurely":10328,"Ġassembled":10329,"ĠHawai":10330,"93":10331,"SI":10332,"gral":10333,"jamin":10334,"path":10335,"zi":10336,"Ġpizza":10337,"Ġeukary":10338,"urities":10339,"Ġbeautiful":10340,"iments":10341,"ĠExt":10342,"ĠWrit":10343,"Ġshorter":10344,"Ġlocally":10345,"ĠNapoleonic":10346,"Ġwatching":10347,"Ġhotels":10348,"Ġsequences":10349,"Ġwantah":10350,"Ġqualities":10351,"aturally":10352,"ĠRAF":10353,"Ġyeah":10354,"Ġdubbed":10355,"bachev":10356,"eing":10357,"Ġinherent":10358,"Ġpool":10359,"Ġbake":10360,"Ġbishop":10361,"Ġgone":10362,"ĠMir":10363,"isting":10364,"Ġorthodox":10365,"ourse":10366,"eping":10367,"ressive":10368,"Ġsponsored":10369,"Ġgenres":10370,"aha":10371,"Ġ700":10372,"Ġdescended":10373,"Ġsocially":10374,"hibition":10375,"Ġ1865":10376,"ĠStudios":10377,"Ġeasier":10378,"Ġabsorption":10379,"Ġsteps":10380,"ĠBonaparte":10381,"Ġlibraries":10382,"haus":10383,"Ġtennis":10384,"ester":10385,"Ġpont":10386,"ulations":10387,"ĠDom":10388,"Ġorgans":10389,"ĠLew":10390,"connect":10391,"Ġtransmitted":10392,"aircraft":10393,"Ġrefere":10394,"ĠGreg":10395,"ĠPalermo":10396,"Ġdefeating":10397,"Ġ1927":10398,"Ġcurriculum":10399,"post":10400,"uz":10401,"Éĳ":10402,"Ġdriving":10403,"ĠColl":10404,"adstone":10405,"ogene":10406,"Ġperipher":10407,"ĠThailand":10408,"Ġboat":10409,"Ġproductions":10410,"Ġanyone":10411,"Ġextensively":10412,"inson":10413,"Ġdepict":10414,"Ġauthorized":10415,"iscop":10416,"Ġlabels":10417,"ĠVictorian":10418,"Ġjoining":10419,"Ġranking":10420,"Ġconsumers":10421,"Ġ1855":10422,"Ġcommunicate":10423,"Ġweapon":10424,"Ġfeeling":10425,"Ġsa":10426,"Ġbare":10427,"Ġhalls":10428,"ctive":10429,"ĠKU":10430,"ĠReb":10431,"Ġinterf":10432,"Ġreporting":10433,"Ġzones":10434,"Ġcontribute":10435,"Ġmechanisms":10436,"Ġsymbolic":10437,"Ġeccles":10438,"Ġjourney":10439,"ĠConfederation":10440,"Ġdeeply":10441,"Ġnutrition":10442,"ĠUrban":10443,"DNA":10444,"How":10445,"aeda":10446,"cap":10447,"gel":10448,"Ġwounded":10449,"ashed":10450,"Ġtool":10451,"Ġhired":10452,"roximately":10453,"start":10454,"ĠCA":10455,"ĠBall":10456,"oca":10457,"Ġabbrev":10458,"Ġboards":10459,"Ġscar":10460,"forming":10461,"Ġinflux":10462,"Ġencourag":10463,"Ġcontributing":10464,"Ġaccessible":10465,"marks":10466,"Ġtorchbear":10467,"ĠMembers":10468,"ĠBenjamin":10469,"Ġpilot":10470,"Ġburned":10471,"Ġprominence":10472,"case":10473,"first":10474,"father":10475,"iability":10476,"itol":10477,"Ġinfer":10478,"Ġhab":10479,"Ġgang":10480,"opes":10481,"ĠEC":10482,"ĠLyn":10483,"Ġplates":10484,"izable":10485,"Ġcommanded":10486,"Ġtrace":10487,"Ġpolitically":10488,"Ġterrain":10489,"Ġinsisted":10490,"Ġpredict":10491,"ĠGregor":10492,"Ġcirculation":10493,"Ġ1921":10494,"Ġcontribution":10495,"Ġdisputes":10496,"Ġcommanders":10497,"ĠMalays":10498,"ĠMarket":10499,"ĠMississipp":10500,"ĠVenice":10501,"ĠDenmark":10502,"ĠBabyl":10503,"utenant":10504,"Croatian":10505,"lined":10506,"math":10507,"rill":10508,"vy":10509,"Ġic":10510,"itative":10511,"arl":10512,"ĠTerm":10513,"Ġaspir":10514,"Ġ1916":10515,"Ġunus":10516,"rule":10517,"Ġaftermath":10518,"Ġplayback":10519,"Ġcarn":10520,"iscal":10521,"Ġbiote":10522,"Ġtravelled":10523,"Ġconsumed":10524,"speed":10525,"Ġillum":10526,"Ġlimitations":10527,"Ġpronounced":10528,"ĠZhang":10529,"Ġpictures":10530,"Ġseeking":10531,"Ġtallest":10532,"Ġdismissed":10533,"ĠAuthority":10534,"yo":10535,"zym":10536,"Ùħ":10537,"esides":10538,"Ġles":10539,"ĠBras":10540,"Ġ(âĪĴ":10541,"ĠRos":10542,"quer":10543,"Ġheating":10544,"active":10545,"achal":10546,"Ġ41":10547,"ĠIndex":10548,"taining":10549,"ĠRepublicans":10550,"Ġrede":10551,"Ġhandled":10552,"Ġrender":10553,"Ġwinds":10554,"Ġillust":10555,"ĠSimon":10556,"Ġexhibit":10557,"Ġmissionaries":10558,"Ġsacred":10559,"ĠWilson":10560,"Ġadvertising":10561,"Ġaerial":10562,"Ġexplanation":10563,"AC":10564,"If":10565,"instein":10566,"onal":10567,"omach":10568,"Ġlan":10569,"amics":10570,"ĠGB":10571,"ĠGirl":10572,"ĠJo":10573,"Ġarbit":10574,"Ġconsensus":10575,"Ġindeed":10576,"Ġinterse":10577,"Ġapproaches":10578,"Ġideals":10579,"Ġportions":10580,"Ġnationally":10581,"iquity":10582,"Ġ1908":10583,"ĠPeriod":10584,"Ġnobles":10585,"Ġsunlight":10586,"Ġbelonging":10587,"Ġfavourite":10588,"ĠReformed":10589,"ĠLocke":10590,"Ġpursue":10591,"Ġpupils":10592,"Ġbronze":10593,"Mad":10594,"North":10595,"Roman":10596,"ns":10597,"page":10598,"Ŀ¤":10599,"Ġtape":10600,"arth":10601,"ĠTraining":10602,"ĠJun":10603,"izer":10604,"Ġdeck":10605,"iodiversity":10606,"Ġlegs":10607,"ĠColony":10608,"Ġconfusion":10609,"Ġpracticed":10610,"Ġactivists":10611,"Ġtournament":10612,"Ġcoined":10613,"Ġseverely":10614,"á¹ĩ":10615,"powered":10616,"Ġadaptation":10617,"Ġorchestra":10618,"Ġlodges":10619,"ĠKennedy":10620,"Ne":10621,"burn":10622,"east":10623,"low":10624,"atories":10625,"Ġsick":10626,"alach":10627,"Ġlam":10628,"ocal":10629,"alling":10630,"ĠUntil":10631,"ĠVin":10632,"Ġrecre":10633,"ĠYong":10634,"Ġsubord":10635,"Ġ54":10636,"ĠWhig":10637,"Ġ1924":10638,"Ġintegral":10639,"ÉĻs":10640,"Ġclosest":10641,"ĠAnatolia":10642,"ĠClinton":10643,"Ġenormous":10644,"MC":10645,"die":10646,"lled":10647,"Ġaided":10648,"Ġod":10649,"ancial":10650,"Ġwake":10651,"omed":10652,"Ġvault":10653,"ĠUpper":10654,"Ġboost":10655,"Ġincent":10656,"ailing":10657,"Ġdefault":10658,"ĠIndians":10659,"Ġflowers":10660,"Ġsurve":10661,"Ġcorps":10662,"Ġmarry":10663,"Ġlasting":10664,"Ġ130":10665,"restrial":10666,"ĠRoom":10667,"ĠCubism":10668,"Ġcoinc":10669,"Ġachievement":10670,"Ġcardinals":10671,"Ġtalking":10672,"ĠSerbian":10673,"ĠConfederate":10674,"Ġlandscape":10675,"Ġcoffee":10676,"natural":10677,"ÏĢ":10678,"heim":10679,"Ġaware":10680,"urated":10681,"rage":10682,"ĠHug":10683,"ĠRing":10684,"ĠRest":10685,"Ġchampion":10686,"ags":10687,"Ġshop":10688,"Ġclan":10689,"ĠVice":10690,"Ġscre":10691,"Ġknew":10692,"Ġflights":10693,"ĠCommons":10694,"Ġrequested":10695,"Ġdemocratic":10696,"Ġvalleys":10697,"Ġtitled":10698,"ĠLodges":10699,"Ġpartnership":10700,"ĠLutheran":10701,"Ġminerals":10702,"Ġromantic":10703,"Ġdiarrhea":10704,"Ġannouncement":10705,"ĠDeclaration":10706,"/,":10707,"ÃĹ":10708,"Ġrivals":10709,"Ġwings":10710,"alog":10711,"olar":10712,"ĠCra":10713,"Ġplural":10714,"Ġdemol":10715,"ĠAdvent":10716,"Ġreplacing":10717,"ĠTruman":10718,"Ġtested":10719,"clusive":10720,"Ġwindow":10721,"Ġacquisition":10722,"Ġsenate":10723,"Ġmagazines":10724,"Ġenemies":10725,"ĠGeorgian":10726,"Ġshelter":10727,"Re":10728,"language":10729,"Ġ*":10730,"Ġpages":10731,"Ġmart":10732,"ĠHind":10733,"ĠFa":10734,"ĠInformation":10735,"ortion":10736,"anga":10737,"outs":10738,"Ġsupplied":10739,"Ġconsidering":10740,"ĠAttic":10741,"ĠCarth":10742,"Ġpoet":10743,"ĠCla":10744,"ĠHarry":10745,"Ġgradual":10746,"ĠPrussians":10747,"Ġchoices":10748,"Ġreserved":10749,"Ġprogressive":10750,"ĠYears":10751,"isphere":10752,"Ġenhance":10753,"Ġswimming":10754,"Ġgrammar":10755,"Ġtissue":10756,"ĠSaturday":10757,"900":10758,"itated":10759,"arin":10760,"Ġmile":10761,"Ġgiant":10762,"ĠMun":10763,"termin":10764,"ifix":10765,"Ġexcell":10766,"clam":10767,"Ġherself":10768,"chnology":10769,"ĠOrigin":10770,"Ġaccession":10771,"Ġyoungest":10772,"Ġquestioned":10773,"Ġrepeatedly":10774,"Ġassassination":10775,"Brit":10776,"di":10777,"mount":10778,"oen":10779,"Å¡":10780,"Ġdivers":10781,"unal":10782,"Ġhey":10783,"Ġpermission":10784,"Ġampl":10785,"Ġsystematic":10786,"Ġendors":10787,"Ġbelt":10788,"Ġ99":10789,"Ġtelecommunications":10790,"Ġmounted":10791,"Ġdeterior":10792,"Ġbaseball":10793,"Ġcrucial":10794,"ĠChapel":10795,"ĠDemocrat":10796,"Ġunsuccessful":10797,"ĠGorbachev":10798,"bridge":10799,"iD":10800,"Ð½":10801,"arus":10802,"Ġrear":10803,"ĠSel":10804,"ĠIron":10805,"Ġisot":10806,"ĠKy":10807,"Ġplane":10808,"Ġjun":10809,"issions":10810,"Ġremn":10811,"ĠIndigenous":10812,"Ġmonuments":10813,"Ġcooperation":10814,"Ġpatri":10815,"Ġvolcan":10816,"Ġhandling":10817,"Ġinformed":10818,"ĠReview":10819,"Ġmissiles":10820,"ĠJosÃ©":10821,"ĠPatrick":10822,"Ġwrestlers":10823,"Ġarrangements":10824,"Ġinnovations":10825,"ĠDirector":10826,"ĠDevon":10827,"Ġobligations":10828,"Ġpredecessor":10829,"Ġcommemor":10830,"she":10831,"was":10832,"Ġcir":10833,"alities":10834,"Ġhaz":10835,"Ġninth":10836,"ĠPowers":10837,"ĠHokkien":10838,"Ġka":10839,"Ġroof":10840,"veloped":10841,"Ġflows":10842,"Ġfee":10843,"Ġcarries":10844,"Ġdidn":10845,"Ġseasonal":10846,"Ġphysiological":10847,"Ġveter":10848,"Ġ1898":10849,"ĠDavis":10850,"ĠFreedom":10851,"regular":10852,"Ġinjured":10853,"Ġempirical":10854,"?\"":10855,"Am":10856,"when":10857,"Ġicon":10858,"only":10859,"ompe":10860,"ĠAI":10861,"ĠSyn":10862,"ĠCrit":10863,"ĠGate":10864,"angle":10865,"Ġmeters":10866,"Ġinvasions":10867,"Ġquad":10868,"ĠLeop":10869,"Ġmarking":10870,"hester":10871,"Ġstarts":10872,"generation":10873,"Ġnorthwestern":10874,"aea":10875,"Ġmarketed":10876,"olitical":10877,"Ġexamination":10878,"Ġregulatory":10879,"Ġbulbs":10880,"Ġcommented":10881,"Ġfluid":10882,"Ġlatest":10883,"Ġathlet":10884,"ĠBoulevard":10885,"oultry":10886,"Between":10887,"Col":10888,"ishers":10889,"Ġeuro":10890,"Ġnerv":10891,"ĠAcc":10892,"idance":10893,"Ġwhilst":10894,"ĠRem":10895,"iffer":10896,"sex":10897,"ĠAlban":10898,"Ġ39":10899,"Ġtradem":10900,"Ġmini":10901,"type":10902,"afuti":10903,"Ġdemographic":10904,"ĠScand":10905,"itutional":10906,"Ġeveryone":10907,"Ġrepublics":10908,"versely":10909,"Ġproteins":10910,"ĠSaxon":10911,"Ġdanger":10912,"Ġexactly":10913,"Ġthirteen":10914,"Ġeditorial":10915,"ĠGeneva":10916,"Ġimpedance":10917,"fire":10918,"mail":10919,"phe":10920,"rically":10921,"ãĤ":10922,"alian":10923,"Ġhate":10924,"ĠTony":10925,"ĠIr":10926,"Ġstake":10927,"heric":10928,"Ġsegreg":10929,"dule":10930,"Ġkg":10931,"Ġcomprom":10932,"Ġteen":10933,"azine":10934,"Ġinspiration":10935,"Ġ1933":10936,"ĠBaroque":10937,"ĠSecret":10938,"Ġ1838":10939,"Ġtranslations":10940,"rels":10941,"ĠContemporary":10942,"ulsa":10943,"Ġtwentieth":10944,"Ġtransmitter":10945,"Ġphenomena":10946,"Ġenroll":10947,"onymous":10948,"Ġdecisive":10949,"RM":10950,"bus":10951,"ho":10952,"Ġszlachta":10953,"Ġliv":10954,"ĠTulsa":10955,"olves":10956,"ĠMike":10957,"ĠEs":10958,"ĠNash":10959,"Ġ\"[":10960,"Ġunions":10961,"overy":10962,"Ġclosing":10963,"Ġaggressive":10964,"iously":10965,"Ġrocks":10966,"Ġaddressed":10967,"ĠCommunications":10968,"ependent":10969,"Ġsecured":10970,"Ġdebuted":10971,"Ġ1923":10972,"Ġ1928":10973,"Ġfallen":10974,"rapes":10975,"Ġregulated":10976,"Ġpoorly":10977,"ĠFinally":10978,"Ġquantity":10979,"ĠClassic":10980,"Ġnomination":10981,"ĠOpen":10982,"Ġelectronics":10983,"ĠSpirit":10984,"Ġunemployment":10985,"97":10986,"PO":10987,"lad":10988,"Ġsoph":10989,"Ġbure":10990,"Ġmask":10991,"Ġnaturally":10992,"Ġconclusion":10993,"Ġprog":10994,"iances":10995,"ĠJoint":10996,"Ġarous":10997,"Ġdisapp":10998,"Ġamph":10999,"ictional":11000,"Ġdefended":11001,"Ġobsc":11002,"Ġ140":11003,"aneous":11004,"Ġdestination":11005,"Ġcolloqu":11006,"Ġdispers":11007,"ĠRomance":11008,"Ġpermanently":11009,"Ġsurrendered":11010,"Ġtrophy":11011,"âģ":11012,"Ġpull":11013,"icate":11014,"Ġgap":11015,"ĠBan":11016,"clude":11017,"Ġ1820":11018,"Ġdefensive":11019,"Ġextends":11020,"Ġreleg":11021,"Ġfinale":11022,"Ġfacts":11023,"hemes":11024,"Ġtraveling":11025,"Ġdrove":11026,"Ġanthropologists":11027,"Ġsnowfall":11028,"ĠCampus":11029,"Ġaltitude":11030,"ĠChildren":11031,"ĠCypriots":11032,"Ġpursued":11033,"Ġpeasants":11034,"bel":11035,"five":11036,"sim":11037,"wich":11038,"Äĵ":11039,"Ġtired":11040,"Ġcens":11041,"ingly":11042,"ĠPress":11043,"ifts":11044,"resident":11045,"Ġperpet":11046,"ordon":11047,"Ġscope":11048,"Ġuprising":11049,"Ġcontinents":11050,"ĠGladstone":11051,"Ġrebel":11052,"ĠMacedonia":11053,"Ġglaciers":11054,"ĠWinter":11055,"Ġarchaeological":11056,"Ġbattery":11057,"Ġbaptism":11058,"ĠArticle":11059,"MP":11060,"nut":11061,"number":11062,"sa":11063,"Ġtab":11064,"Ġbike":11065,"ĠPear":11066,"Ġkick":11067,"ĠKim":11068,"Ġshaped":11069,"Ġgrants":11070,"Ġrelatives":11071,"Ġscores":11072,"Ġdefic":11073,"Ġmetall":11074,"Ġbreeds":11075,"Ġhelps":11076,"ĠAugustus":11077,"Ġmultiracial":11078,"ungs":11079,"ĠTurk":11080,"Ġreportedly":11081,"Ġpeaks":11082,"Ġautomatically":11083,"Ġreinforce":11084,"Ġfibers":11085,"Ġaccomplished":11086,"250":11087,"ME":11088,"Ġtet":11089,"Ġtone":11090,"erally":11091,"Ġsoutheastern":11092,"Ġholy":11093,"Ġrecept":11094,"child":11095,"through":11096,"irt":11097,"opot":11098,"ĠRen":11099,"Ġdeals":11100,"ĠDra":11101,"These":11102,"Ġenlar":11103,"Ġje":11104,"Ġevident":11105,"Ġapplying":11106,"Ġtransistor":11107,"Ġ53":11108,"Ġministry":11109,"Ġbrew":11110,"white":11111,"ĠAmster":11112,"Ġmagist":11113,"Ġviolation":11114,"ĠDesign":11115,"Ġcollective":11116,"ĠRegional":11117,"Ġbandwidth":11118,"Through":11119,"Ġattractions":11120,"Ġcomparable":11121,"Ġnominal":11122,"Ġconsolidated":11123,"cyclop":11124,"Ġhypothesis":11125,"ĠAmsterdam":11126,"cific":11127,"Ã´":11128,"Ġid":11129,"Ġtanks":11130,"Ġcup":11131,"itivity":11132,"Ġfiscal":11133,"ĠASCII":11134,"ilateral":11135,"ĠSection":11136,"olving":11137,"ĠCi":11138,"ĠMult":11139,"rix":11140,"ĠRoss":11141,"Ġdeer":11142,"iah":11143,"oga":11144,"ava":11145,"ĠVed":11146,"Ġgenerate":11147,"Ġbehalf":11148,"Ġturning":11149,"Ġresponses":11150,"writer":11151,"Ġastronomy":11152,"ĠJacob":11153,"oustic":11154,"ĠSymphony":11155,"Ab":11156,"via":11157,"yk":11158,"Ġsight":11159,"leans":11160,"Ġrevel":11161,"Ġlad":11162,"sts":11163,"ĠAbor":11164,"ĠSuez":11165,"ĠPier":11166,"istically":11167,"aculate":11168,"mented":11169,"Ġplot":11170,"Ġintest":11171,"Ġintensity":11172,"aware":11173,"Ġindex":11174,"ĠNewfound":11175,"Ġ47":11176,"Ġdisco":11177,"ĠAllen":11178,"Ġcriticised":11179,"ĠMontini":11180,"Under":11181,"Ġschedule":11182,"ĠPlanck":11183,"Ġthirty":11184,"ĠPicture":11185,"ĠProfessor":11186,"ĠInitially":11187,"ĠColorado":11188,"Ġreferee":11189,"âģĦ":11190,"ĠNewfoundland":11191,"/;":11192,"Japan":11193,"made":11194,"Ïĥ":11195,"Ġtheological":11196,"rection":11197,"star":11198,"ĠAene":11199,"ctic":11200,"ĠCow":11201,"Ġgym":11202,"ĠEc":11203,"ĠEll":11204,"ĠEaster":11205,"ĠGray":11206,"ĠNiz":11207,"perms":11208,"reath":11209,"ĠDeath":11210,"aziland":11211,"pora":11212,"ĠOrchest":11213,"Ġequipped":11214,"Ġguidance":11215,"Ġconnects":11216,"Ġpriority":11217,"Ġcheap":11218,"Ġfeeding":11219,"Ġdenomination":11220,"building":11221,"Islam":11222,"Ġdynamic":11223,"ĠScandin":11224,"both":11225,"cor":11226,"kan":11227,"asional":11228,"Ġreception":11229,"imet":11230,"Ġprol":11231,"eller":11232,"Ġattain":11233,"Ġmanip":11234,"Ġ73":11235,"Ġcontroller":11236,"Ġretreated":11237,"ophone":11238,"Ġsecretary":11239,"Ġphysic":11240,"Ġrenowned":11241,"ĠAppalach":11242,"Ġ1835":11243,"Ġfault":11244,"Ġ1853":11245,"ĠSeleucid":11246,"ĠAntonio":11247,"test":11248,"Ġtin":11249,"rell":11250,"Ġsav":11251,"Ġwore":11252,"Ġfirms":11253,"ĠTy":11254,"adow":11255,"ĠHem":11256,"ĠRCA":11257,"ĠNH":11258,"Ġmoon":11259,"ĠChris":11260,"issau":11261,"ĠRecent":11262,"Ġvariable":11263,"Ġpowered":11264,"anna":11265,"Ġcommunist":11266,"Ġcorrupt":11267,"ĠShia":11268,"Ġpasses":11269,"Ġstatistics":11270,"Ġseeing":11271,"Ġconsiderably":11272,"Ġsensory":11273,"Ġemphasized":11274,"Ã¶ppen":11275,"ricket":11276,"criptions":11277,"Ġcorporations":11278,"ĠHungarian":11279,"Ġappointment":11280,"Ġbehaviors":11281,"ĠPalestine":11282,"Ġprosperity":11283,"ĠFleet":11284,"opotam":11285,"mile":11286,"national":11287,"inating":11288,"Ġwet":11289,"Ġfab":11290,"Ġfiction":11291,"icing":11292,"Ġreorgan":11293,"Ġstops":11294,"Ġexcluded":11295,"ometers":11296,"eps":11297,"Ġrelocated":11298,"Ġactress":11299,"ĠPhilos":11300,"Ġmaritime":11301,"Ġdescribing":11302,"ĠEgyptians":11303,"Ġsuggesting":11304,"Ġappearances":11305,"Ã¡rez":11306,"Ġcitizen":11307,"Ġdefinite":11308,"ourage":11309,"ĠGalile":11310,"Ġnarrative":11311,"Ġbelongs":11312,"Ġabandon":11313,"Ġchallenged":11314,"Ġdimin":11315,"Ġwalking":11316,"Ġhybrid":11317,"ĠConservative":11318,"ĠSilver":11319,"Ġokay":11320,"Ġcinema":11321,"Ġtomb":11322,"ĠTurner":11323,"ĠVillage":11324,"Book":11325,"Day":11326,"rity":11327,"Ġtank":11328,"Ġtension":11329,"arly":11330,"Ġgal":11331,"raham":11332,"ĠVedic":11333,"ferencing":11334,"Ġapparat":11335,"Ġ59":11336,"obile":11337,"Ġmanage":11338,"Ġdirections":11339,"Ġpassion":11340,"ĠAustrians":11341,"Ġdelay":11342,"ĠLatino":11343,"ĠCooper":11344,"Ġdocumented":11345,"Ġhonour":11346,"Ġeliminate":11347,"Ġjurisdictions":11348,"Ġmanufacturer":11349,"ĠEritrean":11350,"Ġflowering":11351,"ĠScholars":11352,"Mar":11353,"OK":11354,"cal":11355,"serv":11356,"zt":11357,"ÅĽ":11358,"Ġtherap":11359,"Ġcivic":11360,"Ġhills":11361,"ĠAgre":11362,"ĠPon":11363,"umph":11364,"Ġclothes":11365,"consc":11366,"Ġscr":11367,"Ġactor":11368,"Ġmonetary":11369,"ĠOrd":11370,"Ġ1857":11371,"Ġinfected":11372,"ĠMilan":11373,"ĠSmall":11374,"Ġhappy":11375,"Ġhoped":11376,"Ġimplications":11377,"Ġadvertis":11378,"ĠMotor":11379,"ĠCaucasus":11380,"Afric":11381,"quiry":11382,"Ø±":11383,"Ġcraft":11384,"Ġinver":11385,"rock":11386,"ĠSac":11387,"urse":11388,"urable":11389,"ceans":11390,"ĠEra":11391,"ĠRight":11392,"ĠDance":11393,"aping":11394,"Ġclocks":11395,"Ġnumer":11396,"Ġmuscles":11397,"Ġexpend":11398,"Ġmedian":11399,"Ġannel":11400,"apped":11401,"Ġelites":11402,"Ġinteresting":11403,"Ġcomplexity":11404,"Ġlacked":11405,"Ġtrials":11406,"inyin":11407,"Ġhappened":11408,"ĠOperations":11409,"Ã±a":11410,"ĠSwedish":11411,"Ġmortality":11412,"Ġrituals":11413,"Ġfossils":11414,"ĠJurassic":11415,"Ġaesthetic":11416,"Ġpremiered":11417,"ĠAnthony":11418,"Like":11419,"aft":11420,"fa":11421,"ped":11422,"ÑĤ":11423,"itate":11424,"Ġbicy":11425,"ĠCher":11426,"ĠCheng":11427,"ĠIC":11428,"ĠPant":11429,"ĠHamp":11430,"ĠHIV":11431,"abama":11432,"ĠObs":11433,"Ġapps":11434,"Ġphone":11435,"Ġherb":11436,"oven":11437,"Ġelectromagnetic":11438,"Ġ63":11439,"ĠPrim":11440,"Ġbrown":11441,"ĠPlains":11442,"ĠChurchill":11443,"Ġliberty":11444,"ĠSpeaker":11445,"Ġburial":11446,"Ġfeelings":11447,"Ġmountainous":11448,"Ġlooked":11449,"Ġmerchant":11450,"ĠThroughout":11451,"ĠErn":11452,"Ġprocedures":11453,"Ġaristocracy":11454,"Ġlegitimate":11455,"Ġportrayed":11456,"ockingbird":11457,"Ġwitnessed":11458,"Ġoutdoor":11459,"ĠJohann":11460,"Qaeda":11461,"names":11462,"Ġtas":11463,"Ġtens":11464,"onn":11465,"atra":11466,"Ġcere":11467,"Ġlaser":11468,"ĠCare":11469,"rific":11470,"ĠNaval":11471,"ĠYour":11472,"Ġoutbreak":11473,"Ġphases":11474,"Ġartif":11475,"ĠPhoen":11476,"ĠCentury":11477,"ridor":11478,"Ġproperly":11479,"Ġattacking":11480,"Ġsynchron":11481,"Ġpenet":11482,"Ġsettings":11483,"Ant":11484,"Ġefficacy":11485,"ĠMagn":11486,"Ġvolunt":11487,"Ġinstitutional":11488,"Ġmortgage":11489,"Ġculminated":11490,"Ġphotosynthe":11491,"areness":11492,"Christian":11493,"Ġunusual":11494,"Ġsophistic":11495,"57":11496,"Le":11497,"cut":11498,"iating":11499,"nacular":11500,"Ġtube":11501,"Ġwedd":11502,"Ġanatom":11503,"ĠRang":11504,"Ġathe":11505,"quality":11506,"illes":11507,"Ġhered":11508,"Ġdiffering":11509,"aux":11510,"ĠOrleans":11511,"Ġloop":11512,"ĠAlliance":11513,"ĠArabia":11514,"Ġvernacular":11515,"Ġindicating":11516,"Ġceremonial":11517,"Ġisolation":11518,"ĠMethodist":11519,"Ġcompensation":11520,"Ġcrucifix":11521,"Ġbureauc":11522,"iates":11523,"mus":11524,"po":11525,"wana":11526,"arity":11527,"Ġbinding":11528,"Ġfighter":11529,"ĠBrian":11530,"elle":11531,"istem":11532,"estock":11533,"eman":11534,"ĠRyan":11535,"ĠDick":11536,"ĠInvest":11537,"Ġrid":11538,"essed":11539,"Ġrelating":11540,"ixon":11541,"ĠAfricans":11542,"Ġrestore":11543,"Ġreferences":11544,"Ġcircadian":11545,"ÃŃlia":11546,"Ġpunishment":11547,"rified":11548,"Ġshifts":11549,"Ġlicensing":11550,"Ġexcessive":11551,"ĠFunafuti":11552,"oriented":11553,"ĠDuchess":11554,"Saxon":11555,"Bec":11556,"oir":11557,"tze":11558,"iner":11559,"Ġbiodiversity":11560,"Ġdiction":11561,"ĠMother":11562,"anti":11563,"ĠJack":11564,"ĠStock":11565,"ported":11566,"ĠAny":11567,"Ġfeared":11568,"Ġconfig":11569,"Ġaviation":11570,"Ġsecre":11571,"Ġreduces":11572,"urgical":11573,"Ġscholarship":11574,"Ġbordered":11575,"Ġobservations":11576,"Ġkeyboard":11577,"Ġdealing":11578,"vinced":11579,"ĠFinancial":11580,"Ġsimplified":11581,"Ġprohibited":11582,"Ġprestige":11583,"Ġdiscontinued":11584,"ĠLeopold":11585,"rust":11586,"upt":11587,"uable":11588,"rele":11589,"enburg":11590,"Ġsession":11591,"Ġcash":11592,"Ġwolf":11593,"especially":11594,"entral":11595,"Ġreef":11596,"ĠAT":11597,"Ġconform":11598,"Ġexchang":11599,"aterial":11600,"ahan":11601,"ĠChristopher":11602,"Ġ98":11603,"Ġsuccessive":11604,"ĠShort":11605,"Ġconfirm":11606,"Ġreceiver":11607,"Ġfilming":11608,"ĠComputer":11609,"Ġsentenced":11610,"Ġsubstances":11611,"ĠRomantic":11612,"ĠCharlotte":11613,"ĠsanÃ©":11614,"Ġpreceding":11615,"Ġatmospheric":11616,"ĠLithuania":11617,"controlled":11618,"ĠJordan":11619,"ĠGregorian":11620,"Because":11621,"TE":11622,"bek":11623,"hin":11624,"oom":11625,"rin":11626,"ÏĮ":11627,"Ġaug":11628,"Ġske":11629,"Ġwires":11630,"Ġmes":11631,"ashes":11632,"Ġnic":11633,"urred":11634,"amount":11635,"ĠBol":11636,"otal":11637,"ĠPompe":11638,"Ġorange":11639,"Ġsees":11640,"Ġheres":11641,"ĠKang":11642,"Ġclause":11643,"Ġneo":11644,"ugs":11645,"Ġwhereby":11646,"ĠConroy":11647,"Ġparade":11648,"Ġloose":11649,"Ġengagement":11650,"ĠAbb":11651,"ĠGreco":11652,"Ġconsistently":11653,"Ġsuffer":11654,"Ġbombard":11655,"Ġdiameter":11656,"Ġgaining":11657,"Ġharbor":11658,"Ġmunicipality":11659,"Ġfriendly":11660,"Ġawareness":11661,"Ġenrolled":11662,"Ġfeudal":11663,"Ġdivorce":11664,"ĠRolling":11665,"iastical":11666,"ĠRIBA":11667,"Ġsymptoms":11668,"))":11669,"hn":11670,"high":11671,"atical":11672,"Ġlakes":11673,"ĠSut":11674,"Ġconce":11675,"ounters":11676,"Ġrated":11677,"Ġshops":11678,"Ġresumed":11679,"Ġreliable":11680,"ĠArn":11681,"Ġraid":11682,"Ġquake":11683,"Ġstandardized":11684,"beit":11685,"ĠProtection":11686,"Ġseparately":11687,"Ġ1836":11688,"Ġsemiconduct":11689,"ĠSpeed":11690,"Ġresource":11691,"Ġflags":11692,"Ġstrategies":11693,"Ġpackage":11694,"ĠHDTV":11695,"Ġswitched":11696,"ĠKashmir":11697,"Ġapparatus":11698,"Ġinhib":11699,"Ġmine":11700,"Ġhorn":11701,"imir":11702,"Ġforcing":11703,"acles":11704,"Ġevap":11705,"ĠAlbum":11706,"Ġdevelopers":11707,"Ġ58":11708,"Ġfeast":11709,"Ġconsiders":11710,"atorial":11711,"Ġredes":11712,"raeli":11713,"Ġacceptable":11714,"Ġweekend":11715,"Ġembra":11716,"Ġ1839":11717,"Ġtreas":11718,"Ġsensitive":11719,"month":11720,"ski":11721,"ĠPCs":11722,"ĠNorway":11723,"Ġcontacts":11724,"Ġpanels":11725,"Ġweakness":11726,"Ġinventor":11727,"ĠLiszt":11728,"Ġscholarly":11729,"ĠOhio":11730,"Ġconstituent":11731,"Ġevacuated":11732,"ĠProvince":11733,"ĠSumerian":11734,"Ġhorizontal":11735,"bial":11736,"Ġtort":11737,"Ġing":11738,"Ġdream":11739,"ĠCultural":11740,"Ġgrapes":11741,"ĠMission":11742,"ĠMoon":11743,"ĠBed":11744,"ĠTheod":11745,"ĠTheater":11746,"ĠThess":11747,"ĠLed":11748,"Ġunp":11749,"essions":11750,"Ġarc":11751,"ĠVe":11752,"Ġincom":11753,"Ġsubmitted":11754,"Ġactively":11755,"Ġinterference":11756,"Ġinstances":11757,"rones":11758,"Ġhighway":11759,"Ġ69":11760,"Ġcontrolling":11761,"Ġstatutes":11762,"Ġpurple":11763,"Ġdestinations":11764,"ĠAbraham":11765,"Ġstrongest":11766,"Ġprivately":11767,"Ġepit":11768,"Ġsurvival":11769,"Ġembarked":11770,"ĠGalician":11771,"Ġcutting":11772,"Ġsubstantially":11773,"ĠManchuria":11774,"Ġboyc":11775,"Ġmadaris":11776,"Ġrebuilt":11777,"ĠLebanon":11778,"ĠHimachal":11779,"Pe":11780,"fast":11781,"iens":11782,"lights":11783,"nered":11784,"uv":11785,"itter":11786,"arification":11787,"Ġpairs":11788,"roads":11789,"ĠCost":11790,"iday":11791,"ĠRub":11792,"ifth":11793,"Ġamid":11794,"Ġsyll":11795,"Ġempt":11796,"Ġinvade":11797,"Ġendangered":11798,"Ġwarning":11799,"minute":11800,"ĠPhill":11801,"Ġideology":11802,"Ġposts":11803,"Ġlaunching":11804,"Ġdemonstrators":11805,"Ġbrand":11806,"Ġillness":11807,"Ġoptim":11808,"Ġadvantages":11809,"Ġpapal":11810,"ĠIraqi":11811,"ĠMesopotam":11812,"Ġsteady":11813,"Bl":11814,"human":11815,"metry":11816,"roup":11817,"Ãª":11818,"Î¬":11819,"Ġsaving":11820,"Ġwish":11821,"Ġpenn":11822,"Ġlumin":11823,"cho":11824,"ĠBask":11825,"ĠPied":11826,"atever":11827,"oded":11828,"ĠDream":11829,"Ġcomedy":11830,"Ġchamber":11831,"ĠChurches":11832,"Ġrelie":11833,"oving":11834,"Ġdisturb":11835,"Ġsigning":11836,"Ġcontrollers":11837,"Ġcorp":11838,"ĠScientific":11839,"Ġhandle":11840,"Ġhydro":11841,"Ġvirtual":11842,"ĠNigerian":11843,"Ġdoubt":11844,"Ġbatteries":11845,"Ġtolerance":11846,"Ġencompasses":11847,"Ġcamera":11848,"ĠFriedrich":11849,"FSR":11850,"his":11851,"oard":11852,"zer":11853,"ativity":11854,"eness":11855,"Ġmour":11856,"Ġdrought":11857,"Ġcongress":11858,"ĠHann":11859,"ĠGy":11860,"ĠCham":11861,"ĠThames":11862,"ĠAlt":11863,"arest":11864,"Ġcoat":11865,"elfare":11866,"Ġmetro":11867,"Ġ92":11868,"Ġexpert":11869,"Ġmarg":11870,"Ġidentifying":11871,"Ġguer":11872,"ĠSwaziland":11873,"ĠHispan":11874,"Ġ1837":11875,"ĠUNES":11876,"ĠSpecies":11877,"ĠStudents":11878,"Ġelementary":11879,"Ġpraise":11880,"ĠExpress":11881,"ĠLisbon":11882,"Ġprocedure":11883,"Ġcounterparts":11884,"ĠArgentina":11885,"Ġsubscrib":11886,"ĠMargaret":11887,"ĠMississippi":11888,"histor":11889,"Ê°":11890,"atched":11891,"asters":11892,"Ġdies":11893,"ĠSl":11894,"olism":11895,"elian":11896,"ĠGur":11897,"ĠRCC":11898,"Ġprolong":11899,"Ġvoy":11900,"Ġrounds":11901,"Ġheret":11902,"alli":11903,"Ġkid":11904,"ĠVo":11905,"Ġdisk":11906,"acked":11907,"Ġ350":11908,"Ġoffspring":11909,"Ġaccent":11910,"Ġdecide":11911,"ĠNorthwest":11912,"elson":11913,"Ġopponent":11914,"Ġgenerals":11915,"Ġconcrete":11916,"Ġoccupy":11917,"Ġcoastline":11918,"Ġprinces":11919,"Ġsatellites":11920,"ĠBaptists":11921,"ĠYangtze":11922,"iÄĩ":11923,"ycl":11924,"Ġfictional":11925,"Ġreun":11926,"ĠSephard":11927,"Ġgaming":11928,"ĠBob":11929,"Ġstro":11930,"rac":11931,"oda":11932,"ĠFM":11933,"Ġatop":11934,"Ġride":11935,"ĠVIII":11936,"ĠAlpine":11937,"ĠAnthrop":11938,"iversal":11939,"Ġ900":11940,"Ġsocialism":11941,"Ġguide":11942,"Ġvalued":11943,"Ġrenov":11944,"Ġdrama":11945,"Ġveto":11946,"igrant":11947,"Ġ1901":11948,"Ġelevated":11949,"Ġsilk":11950,"Ġcontracts":11951,"ĠSalv":11952,"ĠHamilton":11953,"Ġenhanced":11954,"Ġprivileges":11955,"Ġmetaphysical":11956,"Ġconjunction":11957,"iscopal":11958,"Early":11959,"GM":11960,"cope":11961,"efficient":11962,"sub":11963,"Ġore":11964,"itis":11965,"Ġlover":11966,"tha":11967,"ĠBaker":11968,"ĠEconom":11969,"ĠGordon":11970,"ĠRab":11971,"ĠFather":11972,"Ġvig":11973,"ĠJenn":11974,"Ġunification":11975,"Ġreserve":11976,"lice":11977,"Ġformula":11978,"airo":11979,"Ġequality":11980,"ĠAdmiral":11981,"ĠXII":11982,"Ġintroducing":11983,"Ġappearing":11984,"Ġ1878":11985,"Ġcelebrate":11986,"Ġframes":11987,"Ġstrip":11988,"ĠPopular":11989,"Ġchallenges":11990,"Ġsupers":11991,"Ø§Ù":11992,"\"âĢĶ":11993,"];":11994,"zes":11995,"Â²":11996,"Ġtick":11997,"enz":11998,"Ġsel":11999,"aro":12000,"opters":12001,"ĠHad":12002,"rip":12003,"ĠWang":12004,"Ġ1815":12005,"Ġreluct":12006,"Ġrac":12007,"Ġdecree":12008,"ysc":12009,"Ġelectrons":12010,"ĠRomania":12011,"Ġpoison":12012,"ĠMedal":12013,"Äģn":12014,"ĠSchools":12015,"China":12016,"Chopin":12017,"Ġbeneficial":12018,"Ġselective":12019,"ĠLiberty":12020,"Ġaims":12021,"BMS":12022,"ĠTransport":12023,"ĠMidna":12024,"ozoic":12025,"ĠZhou":12026,"ĠSerbia":12027,"ĠLarge":12028,"absburg":12029,"Ġtasks":12030,"):":12031,"FM":12032,"OC":12033,"pin":12034,"pos":12035,"vised":12036,"Ìģ":12037,"Ġpinyin":12038,"ĠSikh":12039,"ĠMess":12040,"emale":12041,"riers":12042,"odied":12043,"ĠFant":12044,"ĠFood":12045,"ĠJoe":12046,"izers":12047,"angan":12048,"Ġearning":12049,"Ġsuppressed":12050,"Ġpassive":12051,"Ġsixteen":12052,"Ġrendered":12053,"Ġsentences":12054,"ydrogen":12055,"bitumen":12056,"Ġpayments":12057,"Ġrejection":12058,"Ġlogo":12059,"ĠCapitol":12060,"Ġaccurately":12061,"Ġpreparation":12062,"ĠBulgaria":12063,"Ġjudgment":12064,"ĠBosnia":12065,"Ġunderwent":12066,"ĠLewis":12067,"ĠUNESCO":12068,"Jew":12069,"Latin":12070,"Nap":12071,"alid":12072,"Ġinject":12073,"Ġpave":12074,"enten":12075,"chi":12076,"chief":12077,"verage":12078,"ĠMoz":12079,"ayer":12080,"ĠGE":12081,"ĠGib":12082,"ĠFall":12083,"ĠUran":12084,"ĠKur":12085,"Ġcaptain":12086,"Ġculturally":12087,"ĠBeach":12088,"venth":12089,"Ġnonprofit":12090,"Ġrestoration":12091,"Ġbelieving":12092,"Ġpredicted":12093,"ĠArabian":12094,"Ġhunt":12095,"Ġdias":12096,"Ġsituations":12097,"Ġ1889":12098,"What":12099,"Ġfriendship":12100,"Ġmathematic":12101,"ĠMongols":12102,"Ġsuperiority":12103,"ographer":12104,"popular":12105,"Ġsummers":12106,"Ġsubtropical":12107,"ĠStephen":12108,"Ġstrengthened":12109,"Ġlivestock":12110,"ĠOrchestra":12111,"World":12112,"birds":12113,"furt":12114,"words":12115,"Ġ=":12116,"Ġty":12117,"Ġfame":12118,"ĠTit":12119,"ĠPolic":12120,"Ġally":12121,"Ġoral":12122,"Ġunst":12123,"pling":12124,"Ġamino":12125,"Ġjunction":12126,"Ġconsent":12127,"Ġcolored":12128,"aharan":12129,"Ġgrouped":12130,"Ġdistances":12131,"Ġtraded":12132,"Ġ77":12133,"Ġaverages":12134,"ĠEdison":12135,"ĠCuba":12136,"ĠArtist":12137,"Ġquantities":12138,"written":12139,"Ġjournalist":12140,"Ġaccuracy":12141,"ĠNormandy":12142,"Ġsustained":12143,"ĠAbdul":12144,"Î¿ÏĤ":12145,"Ġcomplicated":12146,"Ġdownload":12147,"ĠMalaysia":12148,"ĠAgreement":12149,"ĠChengdu":12150,"De":12151,"UN":12152,"ivery":12153,"km":12154,"rised":12155,"Ġaired":12156,"Ġoceans":12157,"Ġdancing":12158,"Ġdiox":12159,"ĠHart":12160,"ĠGates":12161,"ĠRap":12162,"ĠWalk":12163,"ĠWolf":12164,"Ġcontempor":12165,"Ġspite":12166,"Ġpeers":12167,"Ġafterwards":12168,"oves":12169,"Ġfeathers":12170,"yself":12171,"Ġeconomies":12172,"Ġpromulg":12173,"Ġbacked":12174,"Ġmargin":12175,"Ġfungi":12176,"Ġskill":12177,"ĠConstantine":12178,"ertile":12179,"Ġinstituted":12180,"rague":12181,"Ġparticipating":12182,"ÃŃa":12183,"Ġrisks":12184,"Ġcarriage":12185,"Ġdissolution":12186,"Arthur":12187,"Ġcease":12188,"ĠFamily":12189,"ĠCeltic":12190,"Ġluxury":12191,"wall":12192,"Ġæ":12193,"icides":12194,"Ġdiod":12195,"Ġlobby":12196,"ĠCole":12197,"Ġ($":12198,"Ġstomach":12199,"ĠHabsburg":12200,"ĠNortheast":12201,"sein":12202,"uble":12203,"Ġpartial":12204,"Ġwheel":12205,"Ġundergo":12206,"ĠRef":12207,"ĠHein":12208,"Ġmonastic":12209,"Ġapartment":12210,"elsh":12211,"Ġopenly":12212,"ĠPlate":12213,"ĠJuÃ¡rez":12214,"Ġpresentation":12215,"ĠCharter":12216,"Ġconnector":12217,"ĠBroz":12218,"ĠExpl":12219,"Ġ1849":12220,"Ġlogical":12221,"Ġcustomer":12222,"Ġproposals":12223,"ographers":12224,"Ġinstructions":12225,"ĠRonald":12226,"lassical":12227,"ĠKazakh":12228,"Ġhelicopters":12229,"iceroy":12230,"ĠBasketball":12231,"aic":12232,"ipe":12233,"rous":12234,"sometimes":12235,"asant":12236,"ĠSometimes":12237,"ĠPil":12238,"ĠNice":12239,"ogan":12240,"ĠChairman":12241,"pert":12242,"uren":12243,"away":12244,"Ġcooper":12245,"Ġmeditation":12246,"ashire":12247,"Ġfinish":12248,"Ġconfidence":12249,"Ġperformers":12250,"ĠGrad":12251,"ĠBohem":12252,"Ġacquire":12253,"ĠHighway":12254,"Ġcoding":12255,"ĠReligious":12256,"Ġstraight":12257,"Ġborrowed":12258,"ĠAudio":12259,"Ġadherents":12260,"icularly":12261,"Ġupdated":12262,"ĠAtticus":12263,"AN":12264,"Not":12265,"bul":12266,"sch":12267,"Ġbid":12268,"leted":12269,"Ġholes":12270,"ĠChel":12271,"ĠBlu":12272,"ĠBened":12273,"ĠNCA":12274,"ivores":12275,"Ġcha":12276,"Ġchair":12277,"Ġreset":12278,"cedented":12279,"Ġstudios":12280,"Ġquoted":12281,"ĠIsa":12282,"Ġadvised":12283,"Ġvisits":12284,"Ġcamps":12285,"Ġnevertheless":12286,"Ġ1872":12287,"Ġsoundtrack":12288,"Ġfifty":12289,"ĠMagazine":12290,"Ġdrawing":12291,"Ġinterpretations":12292,"ĠMachine":12293,"Ġaggression":12294,"ĠEthiopia":12295,"Ġunprecedented":12296,"namese":12297,"!\"":12298,"Eng":12299,"ker":12300,"matic":12301,"Ġcry":12302,"arb":12303,"Ġfederation":12304,"Ġnortheastern":12305,"ilia":12306,"ĠCam":12307,"ĠCant":12308,"ĠGi":12309,"ĠGand":12310,"umps":12311,"ateur":12312,"ĠLas":12313,"ĠLanguage":12314,"ĠChang":12315,"ipation":12316,"Ġadmit":12317,"Ġperce":12318,"Ġbutton":12319,"Ġaggreg":12320,"ĠIndeed":12321,"iolet":12322,"Ġsoccer":12323,"ĠWarren":12324,"Ġedited":12325,"Ġrevived":12326,"ĠAirlines":12327,"Ġrif":12328,"ĠHarris":12329,"Ġcaliph":12330,"ĠðŁĺī":12331,"Ġsynthesis":12332,"Ġmeasurement":12333,"ĠOften":12334,"Ġabolition":12335,"Ġmadras":12336,"Ġelders":12337,"........":12338,"Ġtemporal":12339,"Ġinaugurated":12340,"Ġsculpture":12341,"Ġcrystal":12342,"ĠTestament":12343,"ĠArnold":12344,"dig":12345,"»¿":12346,"ï¸":12347,"ouri":12348,"states":12349,"amine":12350,"Ġasc":12351,"owder":12352,"ĠPas":12353,"rium":12354,"ĠRun":12355,"ĠRace":12356,"ĠRidge":12357,"ĠFame":12358,"âĢ²":12359,"assador":12360,"Ġenforced":12361,"Ġboot":12362,"Ġpreference":12363,"ĠArctic":12364,"Ġoutcome":12365,"Ġblues":12366,"Ġcurrents":12367,"Ġdivide":12368,"Ġsocialist":12369,"Ġwinners":12370,"Ġfederalism":12371,"Ġcostly":12372,"ĠSamoan":12373,"Ġmandatory":12374,"Muslim":12375,"Ġbiotechnology":12376,"conscious":12377,"Ġcrucifixion":12378,"-,":12379,"EE":12380,"RS":12381,"Tunes":12382,"Ġip":12383,"around":12384,"Ġpagan":12385,"Ġpetroleum":12386,"Ġfusion":12387,"roid":12388,"rah":12389,"rawn":12390,"ĠLP":12391,"Ġunex":12392,"Ġcomprise":12393,"Ġ1821":12394,"Ġdefines":12395,"Ġlandl":12396,"Ġ1500":12397,"Ġsheet":12398,"Ġstatements":12399,"ĠPlato":12400,"Ġ1935":12401,"Ġsolutions":12402,"2008":12403,"Ġ1904":12404,"Ġsurviv":12405,"Ġfocuses":12406,"Ġsamples":12407,"ĠIntel":12408,"ĠLadies":12409,"Ġmomentum":12410,"gorith":12411,"Ġathletic":12412,"ĠPtolemy":12413,"ĠEngineering":12414,"Ġecclesiastical":12415,"ked":12416,"Ġsisters":12417,"ĠAction":12418,"ĠCamer":12419,"ĠRow":12420,"Ġorth":12421,"ĠWeb":12422,"ĠJazz":12423,"ĠKPA":12424,"Ġcomputing":12425,"Ġresur":12426,"Ġresort":12427,"Ġrelied":12428,"Ġrelax":12429,"ucian":12430,"Ġactors":12431,"Ġpresents":12432,"Ġsocio":12433,"exts":12434,"Ġbell":12435,"Ġattempting":12436,"Ġskysc":12437,"Ġinformal":12438,"Ġinvestments":12439,"ĠEarl":12440,"Ġtextual":12441,"Ġpathogen":12442,"construction":12443,"Ġrestaurant":12444,"Ġinstallation":12445,"ĠBrothers":12446,"ĠWildlife":12447,"Ġcortex":12448,"Portuguese":12449,"Madonna":12450,"gem":12451,"hr":12452,"just":12453,"liter":12454,"pany":12455,"rans":12456,"ï»¿":12457,"alo":12458,"iser":12459,"Ġdye":12460,"sten":12461,"ĠSyd":12462,"ĠCro":12463,"Ġash":12464,"third":12465,"thirds":12466,"iri":12467,"ĠPent":12468,"estone":12469,"ĠRet":12470,"ĠWench":12471,"ĠLam":12472,"ocation":12473,"agne":12474,"Ġadmir":12475,"Ġresid":12476,"ĠVers":12477,"Ġsuppress":12478,"Ġservants":12479,"ĠSouthwest":12480,"Ġprofits":12481,"ĠðŁ¤":12482,"ĠAmendment":12483,"ĠBarack":12484,"Ġfarms":12485,"Ġinvested":12486,"ĠCaliph":12487,"ĠSyrian":12488,"Ġabsent":12489,"Ġaccompany":12490,"Ġstriking":12491,"Ġpolycha":12492,"Ġdecorative":12493,"ĠBalkan":12494,"Ġwireless":12495,"Ġpolarization":12496,"ĠMichel":12497,"Ġfloors":12498,"ĠSahara":12499,"Ġneurons":12500,"Ġdioxide":12501,"ï¸ı":12502,"ĠWenchuan":12503,"Hung":12504,"IT":12505,"mal":12506,"main":12507,"pie":12508,"requ":12509,"Ġcyl":12510,"Ġmirac":12511,"Ġnm":12512,"imens":12513,"Ġconvinced":12514,"ĠRoy":12515,"Ġvs":12516,"ivism":12517,"ĠChile":12518,"Ġcontrary":12519,"deryk":12520,"ryderyk":12521,"Ġdishes":12522,"Ġjew":12523,"ĠAlb":12524,"ĠAlan":12525,"Ġinstability":12526,"Ġsuccessors":12527,"orno":12528,"risoned":12529,"Ġdominate":12530,"Ġobjectives":12531,"ĠMao":12532,"Ġresponsibilities":12533,"Ġderives":12534,"Ġ1903":12535,"Ġattracting":12536,"Ġasking":12537,"ĠAgain":12538,"Ġsucceed":12539,"ĠCampaign":12540,"ĠVietnamese":12541,"Ġdeployment":12542,"Ġpredominant":12543,"ĠKnights":12544,"Ġtalks":12545,"Ġsupreme":12546,"Ġsteadily":12547,"Ġobservers":12548,"Ġdoctrines":12549,"clamation":12550,"Ġartifacts":12551,"Dig":12552,"Old":12553,"Slav":12554,"ju":12555,"sic":12556,"uly":12557,"Î·":12558,"Ġbod":12559,"Ġfur":12560,"Ġfighters":12561,"asan":12562,"usan":12563,"ĠWed":12564,"ĠLords":12565,"Ġatoll":12566,"eway":12567,"ubs":12568,"avan":12569,"Ġadequ":12570,"Ġenable":12571,"ĠYellow":12572,"Ġmemorial":12573,"Ġminute":12574,"ructive":12575,"Ġeventual":12576,"Ġdetail":12577,"Ġnationwide":12578,"Ġmorality":12579,"Ġrailroad":12580,"ĠRegion":12581,"Ġdiscussions":12582,"Ġbreakdown":12583,"Ġimprovement":12584,"Ġjournalists":12585,"ĠHinduism":12586,"Ġtalent":12587,"idalgo":12588,"Ġepisodes":12589,"Ġgroove":12590,"Ġcultivation":12591,"Ġfragments":12592,"ĠBrigade":12593,"ĠBavaria":12594,"Ġinferior":12595,"Japanese":12596,"gun":12597,"Î¯":12598,"ĠØ":12599,"iciary":12600,"Ġnurse":12601,"ĠSelf":12602,"ĠCairo":12603,"ĠBund":12604,"istice":12605,"ĠNi":12606,"ĠDrive":12607,"Ġprove":12608,"ĠLah":12609,"ĠKin":12610,"ificate":12611,"ĠIsles":12612,"ixed":12613,"Ġrefin":12614,"Ġglobe":12615,"Ġantiquity":12616,"Ġarchipel":12617,"viously":12618,"Ġemploys":12619,"Ġtargeted":12620,"ĠLawrence":12621,"Ġkilometers":12622,"ĠPCB":12623,"black":12624,"ĠAshkenaz":12625,"Ġinheritance":12626,"Ġtheaters":12627,"Ġguarantee":12628,"Ġstreaming":12629,"Ġforbidden":12630,"technic":12631,"Ġsharp":12632,"ĠDuchy":12633,"ĠBrasÃŃlia":12634,"ĠBenedict":12635,"My":12636,"Modern":12637,"gered":12638,"yÄģ":12639,"inas":12640,"erting":12641,"Ġcater":12642,"ĠSlim":12643,"ĠCable":12644,"unar":12645,"Ġ('":12646,"racial":12647,"ĠRather":12648,"ocial":12649,"arde":12650,"ector":12651,"Ġcontexts":12652,"Ġboats":12653,"Ġcanal":12654,"Ġscattered":12655,"Ġoffsh":12656,"Ġdecay":12657,"Ġextant":12658,"Ġretire":12659,"Ġpoets":12660,"Ġviolin":12661,"Ġtaxonom":12662,"Ġspreading":12663,"Ġreflecting":12664,"ÉĻn":12665,"Ġgrains":12666,"Ġfortress":12667,"Ġescaped":12668,"ĠSaudi":12669,"Ġmessages":12670,"Ġreproduction":12671,"Ġvegetation":12672,"produced":12673,"Ġprofessionals":12674,"ĠSlovak":12675,"Ġmotivated":12676,"Ġmanifest":12677,"Ġaccordance":12678,"ocaust":12679,"Car":12680,"Gu":12681,"Histor":12682,"Saharan":12683,"eper":12684,"fold":12685,"hero":12686,"Ġcaught":12687,"alam":12688,"Ġpm":12689,"ingle":12690,"ums":12691,"ĠLiga":12692,"abi":12693,"ocene":12694,"Ġune":12695,"agi":12696,"ĠStarting":12697,"Ġasserted":12698,"ovo":12699,"Ã©on":12700,"1980":12701,"1990":12702,"Ġimported":12703,"ĠAppe":12704,"Ġmanaging":12705,"Ġgraduates":12706,"ĠRegister":12707,"ĠfaÃ§":12708,"Ġqualified":12709,"Ġrivalry":12710,"Ġcomplained":12711,"Spanish":12712,"Ġterminus":12713,"Ġweakened":12714,"Ġsurpassed":12715,"ĠWhitney":12716,"Ġerected":12717,"Napoleon":12718,"Victor":12719,"bell":12720,"houses":12721,"zens":12722,"Ġow":12723,"ania":12724,"Ġsaking":12725,"Ġbund":12726,"omon":12727,"Ġhap":12728,"thor":12729,"Ġalgorith":12730,"estyle":12731,"Ġseeds":12732,"soon":12733,"Ġreside":12734,"Ġabilities":12735,"ĠVlad":12736,"Ġincor":12737,"Ġfees":12738,"ĠDecc":12739,"Ġspeculation":12740,"Ġcorrel":12741,"Ġsuccesses":12742,"Ġconfused":12743,"Ġexperts":12744,"ĠCanon":12745,"Ġmarched":12746,"atson":12747,"Ġfavoured":12748,"Ġerrors":12749,"2007":12750,"Ġderiv":12751,"Ġancestral":12752,"Ġstruggled":12753,"Ġirr":12754,"Ġvolunteers":12755,"Ġexceeding":12756,"ĠLocal":12757,"Ġnavig":12758,"ĠSultanate":12759,"ĠHussein":12760,"Ġencouraging":12761,"ĠSalvador":12762,"dess":12763,"Ġtou":12764,"Ġsch":12765,"Ġbath":12766,"ĠSino":12767,"this":12768,"ĠMade":12769,"este":12770,"ĠGer":12771,"ĠGospel":12772,"Ġunconst":12773,"ĠKant":12774,"Ġevil":12775,"Ġassisted":12776,"ĠHeights":12777,"grim":12778,"ĠConsequently":12779,"Ġelectoral":12780,"Ġcreates":12781,"Ġfinals":12782,"ographically":12783,"Ġpropri":12784,"ĠFrankish":12785,"Ġaudiences":12786,"Ġdomain":12787,"Ġderive":12788,"iji":12789,"Ġ1864":12790,"Ġcycles":12791,"Ġconstantly":12792,"communication":12793,"Ġmelting":12794,"Ġdocumentary":12795,"Ġcolumns":12796,"ĠAthletic":12797,"ĠCrimean":12798,"ĠðŁĳĭ":12799,"Ġaluminium":12800,"African":12801,"Ġsophisticated":12802,"Ġingred":12803,"Ġprolonged":12804,"OR":12805,"Ġtrop":12806,"isk":12807,"Ġbits":12808,"ĠSA":12809,"ĠSite":12810,"ĠCO":12811,"ĠHence":12812,"ĠNum":12813,"ĠDa":12814,"ĠWelsh":12815,"ĠLic":12816,"Ġyards":12817,"ogle":12818,"Ġcontrad":12819,"ĠIsle":12820,"Ġterminals":12821,"Ġoccasional":12822,"Ġsmallest":12823,"Ġmatching":12824,"Ġlessons":12825,"Ġphysicians":12826,"Ġfreezing":12827,"Ġfinancially":12828,"Ġdiscoveries":12829,"Ġsynag":12830,"Ġroutine":12831,"Ġmissing":12832,"ĠRhodes":12833,"ĠCDs":12834,"ĠBasilica":12835,"Ġmurdered":12836,"Ġprepare":12837,"Ġstrictly":12838,"Ġventure":12839,"Ġunclear":12840,"Ġmetaphysics":12841,"Ġremnants":12842,"ĠChelsea":12843,"EF":12844,"gart":12845,"Ġca":12846,"orance":12847,"Ġmyself":12848,"Ġhole":12849,"ĠCree":12850,"ĠDiana":12851,"Ġseal":12852,"Ġseas":12853,"âĢİ":12854,"Ġtrillion":12855,"Ġabdom":12856,"Ġenzym":12857,"aternal":12858,"ĠiTunes":12859,"ĠComics":12860,"Ġintermediate":12861,"ĠIsab":12862,"Ġdecoration":12863,"Ġterrestrial":12864,"Ġpoem":12865,"Ġguil":12866,"Ġvaluable":12867,"ĠQuebec":12868,"Ġimmigrant":12869,"ĠCoal":12870,"ĠDepression":12871,"Ġreflects":12872,"Ġexhibits":12873,"ĠHolocaust":12874,"ĠChampionships":12875,"ĠColumbus":12876,"Ġirregular":12877,"ĠRelations":12878,"ĠBernard":12879,"Ġcultivated":12880,"Ġreversed":12881,"Ġgathering":12882,"dinand":12883,"Ġ#":12884,"Ġsailed":12885,"oric":12886,"Ġbrick":12887,"Ġfertile":12888,"Ġtoll":12889,"ĠSin":12890,"ĠSide":12891,"Ġbeaches":12892,"ĠThen":12893,"ĠDBMS":12894,"mentation":12895,"Ġtea":12896,"Ġconsoles":12897,"Ġrab":12898,"roll":12899,"Ġfactions":12900,"Ġrespir":12901,"Ġprophe":12902,"ĠInstit":12903,"Ġ1906":12904,"Ġ1897":12905,"Though":12906,"ĠBrand":12907,"Ġbirthday":12908,"helm":12909,"ĠSunni":12910,"Ġstrikes":12911,"White":12912,"ĠSenator":12913,"Ġcorresponds":12914,"ĠBrazilian":12915,"writing":12916,"Ġchampionships":12917,"Ġpioneered":12918,"Ġchapel":12919,"Ġgraphics":12920,"ĠLithuanian":12921,"Ġchicken":12922,"Ġdisappeared":12923,"ĠPiedmont":12924,"ĠNCAA":12925,"ĠSydney":12926,".'":12927,"Wind":12928,"gae":12929,"rÃ©":12930,"worms":12931,"Ġtail":12932,"inburgh":12933,"atial":12934,"Ġlip":12935,"ĠAer":12936,"advant":12937,"ĠPa":12938,"istant":12939,"Ġaltered":12940,"ĠFri":12941,"ĠDark":12942,"Ġsuicide":12943,"ĠLang":12944,"ĠUt":12945,"anye":12946,"Ġtram":12947,"ĠVH":12948,"ĠSee":12949,"Ġhighlight":12950,"Ġdepth":12951,"ĠZone":12952,"Ġ128":12953,"Ġstrings":12954,"ĠAustro":12955,"2010":12956,"Ġdeclaring":12957,"plete":12958,"Ġcircular":12959,"Ġexecutions":12960,"ĠEdinburgh":12961,"ĠCatholicism":12962,"Ġverse":12963,"ĠHerbert":12964,"Ġmorale":12965,"Ġfinds":12966,"ĠMyc":12967,"ĠArchives":12968,"Ġmonarchs":12969,"Ġ1882":12970,"Ġsteam":12971,"ĠLouisiana":12972,"Ġtransitional":12973,"Ġsporting":12974,"ĠAnnual":12975,"Ġprospect":12976,"Ġgymnastics":12977,"Ġcancelled":12978,"ĠUlt":12979,"Ġgenetically":12980,"Ġnitrogen":12981,"Ġfraud":12982,"ÉĳËĲ":12983,"iDou":12984,"Victoria":12985,"Zn":12986,"cule":12987,"drop":12988,"listed":12989,"ÙĬ":12990,"Ġsending":12991,"Ġcables":12992,"esque":12993,"Ġfro":12994,"asp":12995,"Ġlords":12996,"ĠSign":12997,"urgy":12998,"Ġgly":12999,"Ġalbeit":13000,"ĠHidalgo":13001,"ĠWalt":13002,"ghai":13003,"Ġresisted":13004,"Ġabd":13005,"ĠVi":13006,"Ġwheat":13007,"Ġupgr":13008,"Ġ62":13009,"gery":13010,"ĠCanis":13011,"ĠGrant":13012,"ĠXV":13013,"Ġreadings":13014,"Ġcombining":13015,"Ġelig":13016,"Ġ1875":13017,"Ġdemonstrate":13018,"Ġfrontier":13019,"Ġcompositions":13020,"Ġachievements":13021,"ĠiPods":13022,"Ġinnovative":13023,"Ġloyalty":13024,"Ġtonnes":13025,"Ġrhythms":13026,"Ġnavigation":13027,"Ġruins":13028,"Ġpredecessors":13029,"Ġemitted":13030,"Ġclinical":13031,"ĠCommerce":13032,"ĠGregory":13033,"ĠFaith":13034,"Ġtherapy":13035,"ĠMesopotamia":13036,"App":13037,"TF":13038,"ooks":13039,"Ñĥ":13040,"Ġtight":13041,"Ġmak":13042,"ĠBi":13043,"ĠBath":13044,"ĠBesides":13045,"etter":13046,"ĠEinstein":13047,"ĠGymn":13048,"ĠRous":13049,"ĠLud":13050,"achers":13051,"iferous":13052,"ĠJose":13053,"ĠStr":13054,"Ġshock":13055,"ĠYan":13056,"ĠAlger":13057,"Ġincomp":13058,"Ġphil":13059,"Ġtrail":13060,"Ġsurprise":13061,"icking":13062,"Ġdeputy":13063,"ĠSha":13064,"Ġholdings":13065,"Ġimproving":13066,"Ġepistem":13067,"Ġvideocon":13068,"Ġdigestion":13069,"Ġconvenient":13070,"Ġsurfaces":13071,"ĠSNES":13072,"Ġprogressed":13073,"FPA":13074,"mother":13075,"rams":13076,"ori":13077,"Ġmate":13078,"ĠMS":13079,"ĠMockingbird":13080,"ĠHave":13081,"ĠRick":13082,"udad":13083,"ĠJama":13084,"qual":13085,"clarification":13086,"ffield":13087,"Ġabuse":13088,"Ġamendment":13089,"Ġoutstanding":13090,"inded":13091,"ahn":13092,"Ġvariant":13093,"Ġelectrically":13094,"Ġfilmed":13095,"Ġsimilarities":13096,"Ġmeanings":13097,"ĠCook":13098,"Ġaffects":13099,"Ġembass":13100,"ucky":13101,"Ġpaying":13102,"Ġbrut":13103,"Ġdipole":13104,"Ġquarters":13105,"ĠLuis":13106,"ĠMathem":13107,"Ġfatty":13108,"ĠFerdinand":13109,"Ġinaugural":13110,"Ġculminating":13111,"ĠMaratha":13112,"ĠIberian":13113,"Ġamphib":13114,"ĠAboriginal":13115,".ðŁĺ":13116,"110":13117,"IS":13118,"count":13119,"ding":13120,"del":13121,"gate":13122,"mines":13123,"Ġale":13124,"Ġwolves":13125,"Ġmol":13126,"Ġded":13127,"Ġlending":13128,"Ġlying":13129,"ĠCroat":13130,"Ġgut":13131,"ĠBurg":13132,"ĠTheory":13133,"utors":13134,"sect":13135,"ĠOak":13136,"ensington":13137,"Ġschemes":13138,"Ġassume":13139,"ĠIndy":13140,"Ġdistant":13141,"Ġ96":13142,"ĠParth":13143,"Ġprimitive":13144,"borough":13145,"ungsten":13146,"Ġvegan":13147,"Ġrealms":13148,"Ġ1905":13149,"Ġmandol":13150,"ĠCommunists":13151,"achelor":13152,"Ġcongregation":13153,"ĠNonetheless":13154,"Ġprestigious":13155,"Ġpublishers":13156,"ĠBrahman":13157,"fam":13158,"fish":13159,"had":13160,"nan":13161,"Ġbio":13162,"uron":13163,"ĠDh":13164,"ĠWemble":13165,"Ġ\"...":13166,"Ġexceeded":13167,"Ġhect":13168,"Ġheir":13169,"ĠThunder":13170,"Ġrecall":13171,"Ġgenus":13172,"Ġattested":13173,"except":13174,"Ġarticles":13175,"Ġ71":13176,"aze":13177,"Ġbuses":13178,"Ġassociate":13179,"Ġfreely":13180,"Ġhostilities":13181,"Ġadopting":13182,"ĠSerbo":13183,"Ġthreats":13184,"Ġfocusing":13185,"autama":13186,"Ġfifteen":13187,"fields":13188,"Ġbelonged":13189,"Ġtunnel":13190,"Ġprogrammes":13191,"ĠLegislative":13192,"ĠHawaii":13193,"ĠWembley":13194,"05":13195,"Î¼":13196,"Ġtent":13197,"Ġwins":13198,"isdom":13199,"Ġecl":13200,"ĠISP":13201,"Ġgifts":13202,"imb":13203,"ĠBow":13204,"ĠProp":13205,"ayan":13206,"ĠHurricane":13207,"ĠEsp":13208,"Ġarena":13209,"ĠList":13210,"Ġexha":13211,"quest":13212,"aple":13213,"ogens":13214,"Ġplatinum":13215,"aki":13216,"Ġdischar":13217,"Ġ1810":13218,"Ġgenomes":13219,"ceptions":13220,"ohyd":13221,"ĠEmir":13222,"ĠZion":13223,"Ġconsideration":13224,"Ġoriginating":13225,"Ġwinters":13226,"Ġpolicing":13227,"Ġdoesn":13228,"ĠMacArthur":13229,"2006":13230,"Ġinstitutes":13231,"Ġembry":13232,"Ġconquer":13233,"inois":13234,"winning":13235,"Ġrequirement":13236,"Ġcommentators":13237,"Ġhoping":13238,"Ġphonology":13239,"Ġneighbourhood":13240,"ilingual":13241,"Ġcrowned":13242,"copic":13243,"Ġtactics":13244,"ĠBeatrice":13245,"Ġallegations":13246,"Ġinterfere":13247,"ĠWednes":13248,"Mexic":13249,"hand":13250,"mad":13251,"pot":13252,"Êĥ":13253,"itory":13254,"alous":13255,"ilian":13256,"ĠSi":13257,"usp":13258,"ĠBurn":13259,"emer":13260,"ĠDogs":13261,"ĠWhe":13262,"ĠWatson":13263,"acco":13264,"Ġexempl":13265,"ĠInv":13266,"Ġunpopular":13267,"Ġadmission":13268,"ieu":13269,"Ġemissions":13270,"Ġaccus":13271,"ĠBeginning":13272,"Ġhumanism":13273,"Ġcompeted":13274,"Ġfailing":13275,"Ġprize":13276,"shi":13277,"Ġcapturing":13278,"Ġspeaker":13279,"species":13280,"ĠBelarus":13281,"ĠArchbishop":13282,"Ġincorporate":13283,"ĠMorris":13284,"Ġassumption":13285,"Ġsanct":13286,"Ġadaptations":13287,"built":13288,"Ġtrends":13289,"Ġinitiatives":13290,"Ġterrorist":13291,"Ġterrorism":13292,"ĠConfederacy":13293,"Ġwelcom":13294,"official":13295,"Ġabundant":13296,"Ġvulnerable":13297,"ĠCiudad":13298,"ĠHampshire":13299,"Ġdiaspora":13300,"KÃ¶ppen":13301,"MF":13302,"Ts":13303,"lit":13304,"nels":13305,"ÉĴ":13306,"Ġturb":13307,"Ġbow":13308,"Ġfraction":13309,"Ġfisher":13310,"ouble":13311,"Ġrever":13312,"ĠCreat":13313,"adt":13314,"ĠIg":13315,"ĠPir":13316,"ĠHundred":13317,"ĠHomo":13318,"ĠEt":13319,"ĠESP":13320,"ĠRoute":13321,"acher":13322,"seau":13323,"Ġarriving":13324,"duction":13325,"Ġdispar":13326,"Ġspont":13327,"Ġinflation":13328,"ronics":13329,"Ġblamed":13330,"Ġliturgical":13331,"auge":13332,"Ġintroduce":13333,"Ġversus":13334,"ĠSheffield":13335,"ĠHarold":13336,"Ġtravels":13337,"Ġ1896":13338,"Ġwooden":13339,"Ġcredits":13340,"ĠPrinceton":13341,"ethnic":13342,"Ġbehavioral":13343,"Ġwebsites":13344,"Ġinvestigations":13345,"Ġburning":13346,"ĠCopa":13347,"Ġvegetables":13348,"Ġtactical":13349,"ĠVarious":13350,"Ġassimilated":13351,"Ġconsonants":13352,"Ġtheologians":13353,"Ġenzymes":13354,"Ġguilty":13355,"ĠESPN":13356,"Bur":13357,"TS":13358,"mun":13359,"uating":13360,"Ġç":13361,"isans":13362,"Ġbridges":13363,"ĠSak":13364,"ĠSSR":13365,"ĠIT":13366,"ĠHig":13367,"ĠUz":13368,"ĠOd":13369,"Ġchains":13370,"Ġgrades":13371,"Ġovercome":13372,"ĠArk":13373,"isexual":13374,"Ġwarrior":13375,"Ġ1789":13376,"Ġfilter":13377,"Ġguest":13378,"Ġexplorer":13379,"Ġsolve":13380,"Ġcentralized":13381,"Ġhostile":13382,"akening":13383,"Ġcellular":13384,"Ġverbs":13385,"Ġcarefully":13386,"Ġ1866":13387,"ĠBronze":13388,"Ġmagnitude":13389,"ĠAgricult":13390,"ĠWilhelm":13391,"Ġreinforced":13392,"ĠUSAF":13393,"Ġconstitutes":13394,"reprene":13395,"Ġshooting":13396,"ĠCabinet":13397,"Ġchromosome":13398,"PR":13399,"core":13400,"mud":13401,"Î³":13402,"Ġsample":13403,"Ġfu":13404,"Ġny":13405,"igion":13406,"irty":13407,"Ġalive":13408,"emm":13409,"ĠRose":13410,"Ġresemble":13411,"Ġensu":13412,"atern":13413,"Ġearn":13414,"obacteria":13415,"cessary":13416,"Ġimprisoned":13417,"Ġwarrant":13418,"Ġ74":13419,"Ġsmooth":13420,"Ġowns":13421,"Ġeconomically":13422,"Ġexplains":13423,"ĠGenerally":13424,"ĠPalmer":13425,"ĠWithout":13426,"Ġviolations":13427,"ĠLiberation":13428,"Ġdecreed":13429,"Ġsenators":13430,"Ġpossessions":13431,"Ġtendency":13432,"Ġqualify":13433,"Ġencoded":13434,"Ġdeparture":13435,"Ġprayers":13436,"Ġcameras":13437,"ĠOtto":13438,"Ġenrollment":13439,"Ġensuing":13440,"Bissau":13441,"ML":13442,"cia":13443,"gon":13444,"some":13445,"ÅĦ":13446,"Ġax":13447,"Ġber":13448,"Ġdiamond":13449,"entry":13450,"ĠSasha":13451,"Ġbears":13452,"Ġ118":13453,"Ġconfer":13454,"ĠGab":13455,"ĠFC":13456,"ĠFact":13457,"ĠNixon":13458,"ĠDun":13459,"ĠLt":13460,"ĠLast":13461,"ĠOpp":13462,"Ġchip":13463,"ipur":13464,"assan":13465,"Ġadject":13466,"Ġpartition":13467,"Ġformulated":13468,"Ġmuscle":13469,"Ġdeficit":13470,"Ġquiet":13471,"Ġpresum":13472,"Ġtraction":13473,"anking":13474,"Ġdesigner":13475,"Ġfailures":13476,"shine":13477,"married":13478,"Ġfiref":13479,"Ġbrass":13480,"ĠRebellion":13481,"ĠPolicy":13482,"Ġunconstitutional":13483,"mund":13484,"net":13485,"nob":13486,"uy":13487,"wind":13488,"ÉĶ":13489,"Êģ":13490,"Ġinev":13491,"Ġbiblical":13492,"ĠAj":13493,"olph":13494,"ĠCic":13495,"imp":13496,"ĠBack":13497,"ĠHorn":13498,"ĠGel":13499,"ĠNan":13500,"ĠNBA":13501,"Ġrites":13502,"agle":13503,"Ġregain":13504,"Ġendow":13505,"ĠFormer":13506,"anka":13507,"anni":13508,"ĠFriday":13509,"Ġtechnically":13510,"Ġideological":13511,"ĠManufact":13512,"Ġembedd":13513,"Ġattracts":13514,"Ġregulate":13515,"ĠFortune":13516,"Ġsanctions":13517,"Ġpapacy":13518,"ĠWinston":13519,"Ġfastest":13520,"Ġmigrate":13521,"Ġconventions":13522,"ĠCardinal":13523,"Ġcathedrals":13524,"Ġdeliberately":13525,"Ġbankruptcy":13526,"ĠDublin":13527,"ĠRepresentatives":13528,"Ġnervous":13529,"Ġtrademark":13530,"ĠCoalition":13531,".).":13532,"160":13533,"Eston":13534,"Russian":13535,"feld":13536,"hum":13537,"Ġceded":13538,"Ġmit":13539,"Ġnatives":13540,"ĠAM":13541,"ĠSor":13542,"ĠCrow":13543,"iguous":13544,"Ġforty":13545,"ulin":13546,"ulose":13547,"ĠFine":13548,"ĠKal":13549,"Ġcomprised":13550,"ĠVit":13551,"Ġcommod":13552,"Ġdozen":13553,"Ġdozens":13554,"Ġapprec":13555,"Ġacoustic":13556,"Ġentreprene":13557,"Ġairlines":13558,"Ġcarved":13559,"Ġdifferently":13560,"ĠClark":13561,"loid":13562,"Ġsky":13563,"Ġobjected":13564,"Ġvertebrates":13565,"Ġtorque":13566,"Ġeaten":13567,"Ġpossessed":13568,"ĠHistorical":13569,"Ġnominations":13570,"Ġnegotiated":13571,"Ġconvicted":13572,"Ġopinions":13573,"Ġmigratory":13574,"Ġremoving":13575,"Ġcalculated":13576,"Ġbonds":13577,"Ġmetabolic":13578,"Ġreconstruct":13579,"Ġdinosaurs":13580,"Ġflexible":13581,"ĠIllinois":13582,"ĠBaseball":13583,"ogeneous":13584,"Ġarbitrary":13585,"Ġannelids":13586,"La":13587,"Western":13588,"lai":13589,"Ġions":13590,"Ġfals":13591,"Ġreop":13592,"ĠTro":13593,"ĠTreas":13594,"ĠAxis":13595,"ĠSE":13596,"ĠSoon":13597,"ĠMond":13598,"ĠMunicip":13599,"ĠHere":13600,"ĠNick":13601,"ĠDial":13602,"Ġprose":13603,"Ġcomments":13604,"Ġ1915":13605,"ĠKat":13606,"plus":13607,"Ġdisadvant":13608,"acht":13609,"Ġregained":13610,"grass":13611,"Ġflora":13612,"Ġsingers":13613,"eches":13614,"ierra":13615,"Ġtert":13616,"Ġapproached":13617,"Ġstatue":13618,"ĠAdams":13619,"Ġphysician":13620,"Ġuniversally":13621,"ĠCongreg":13622,"Ġtribut":13623,"Ġmixing":13624,"ĠSomalis":13625,"Ġdamaging":13626,"Ġscripts":13627,"Universal":13628,"trak":13629,"ĠâĢĺ":13630,"Ġaffiliate":13631,"Ġpilots":13632,"Ġpursuing":13633,"Ġhormones":13634,"Ġpedest":13635,"Ġmembrane":13636,"ĠECB":13637,"Ġwelcomed":13638,"bian":13639,"new":13640,"Ġsizes":13641,"Ġinclusion":13642,"olly":13643,"ĠBism":13644,"ĠPsych":13645,"ĠHans":13646,"ĠHang":13647,"ĠRugby":13648,"ĠLiv":13649,"Ġric":13650,"arded":13651,"Ġplague":13652,"Ġresolved":13653,"ordinary":13654,"Ġreliance":13655,"Ġattitudes":13656,"Ġrainy":13657,"Ġincidents":13658,"Ġtransformation":13659,"grounds":13660,"ĠConception":13661,"Ġimpressed":13662,"ĠQur":13663,"ĠBeiDou":13664,"Ġpopularized":13665,"Ġhosting":13666,"Ġbiography":13667,"osphere":13668,"Ġdelivery":13669,"Ġrealized":13670,"Ġ1926":13671,"maic":13672,"Ġtenure":13673,"Ġcrosses":13674,"Ġdestroying":13675,"religious":13676,"ĠConfucian":13677,"ĠPatent":13678,"Ġblocked":13679,"ĠRocky":13680,"á¹ĥ":13681,"Ã§ois":13682,"Ġmigrations":13683,"Ġfirmly":13684,"ocolate":13685,"Ġfruits":13686,"Ġbotan":13687,"ĠModel":13688,"ĠLancashire":13689,"ĠKelly":13690,"Ġrendering":13691,"Ġincentives":13692,")âĢĶ":13693,"AI":13694,"ti":13695,"uh":13696,"ÎŃ":13697,"onto":13698,"Ġcord":13699,"Ġmant":13700,"enty":13701,"stage":13702,"ĠFighting":13703,"Ġheated":13704,"ĠChal":13705,"ected":13706,"ĠKam":13707,"ĠVest":13708,"Ġindef":13709,"Ġgovernors":13710,"Ġinterconnect":13711,"Ġdiscrete":13712,"Ġlandown":13713,"Ġlandmarks":13714,"Ġconfined":13715,"Ġposted":13716,"Ġcivilizations":13717,"castle":13718,"Ġfaces":13719,"ĠStudy":13720,"ĠMoroc":13721,"Ġpeaked":13722,"Ġblockade":13723,"Ġconsequently":13724,"Ġelimination":13725,"Ġimplies":13726,"Ġinjuries":13727,"ĠJulius":13728,"Ġunlikely":13729,"Ġbomber":13730,"Ġchapter":13731,"Ġguaranteed":13732,"Ġcarbohyd":13733,"Ġarousal":13734,"Ġirrigation":13735,"02":13736,"Hay":13737,"cence":13738,"eas":13739,"elect":13740,"foot":13741,"tures":13742,"Ġvel":13743,"Ġtenth":13744,"isen":13745,"Ġfart":13746,"ĠTan":13747,"ĠSad":13748,"ĠMW":13749,"unting":13750,"ĠBour":13751,"ĠPub":13752,"Ġstance":13753,"Ġstatic":13754,"rika":13755,"ĠFathers":13756,"ĠNFL":13757,"ĠLiving":13758,"sects":13759,"enda":13760,"ometer":13761,"Ġshield":13762,"Ġshapes":13763,"actions":13764,"ustain":13765,"Ġregister":13766,"ĠAlabama":13767,"inders":13768,"Ġcults":13769,"Ġ72":13770,"Ġseconds":13771,"Ġfinite":13772,"Ġprotocol":13773,"ornado":13774,"Ġdirectors":13775,"Ġinscriptions":13776,"plex":13777,"alties":13778,"Ġachieving":13779,"ĠDelta":13780,"ĠGrande":13781,"Ġpayment":13782,"Ġcontinuum":13783,"Ġvirus":13784,"linary":13785,"Ġcooling":13786,"auty":13787,"ĠChero":13788,"ĠLaboratory":13789,"gatherers":13790,"Ġdynasties":13791,"Ġcircles":13792,"06":13793,"Due":13794,"holder":13795,"Ġtheft":13796,"educ":13797,"Ġchest":13798,"Ġmim":13799,"asive":13800,"Ġtopped":13801,"Ġrept":13802,"Ġlighter":13803,"ĠCrisis":13804,"otted":13805,"ĠFull":13806,"ĠNation":13807,"Ġcompilation":13808,"uplic":13809,"Ġdism":13810,"Ġrecession":13811,"Ġinvaders":13812,"Ġqueen":13813,"oburg":13814,"Ġblow":13815,"ĠConn":13816,"Ġimpressive":13817,"cyth":13818,"riesthood":13819,"Ġportra":13820,"Ġoccurrence":13821,"ĠNeo":13822,"Ġski":13823,"ĠEdwards":13824,"Ġbarons":13825,"Ġmiw":13826,"Ġrebirth":13827,"Ġwinding":13828,"Ġcreatures":13829,"ĠArtists":13830,"Ġsensitivity":13831,"Ġ1888":13832,"Ġratified":13833,"Ġranged":13834,"Ã¶n":13835,"ulsory":13836,"backed":13837,"Ġmagnet":13838,"Ġreservations":13839,"Ġprogressively":13840,"Ġangios":13841,"Ġvenue":13842,"ĠFourth":13843,"Ġnickel":13844,"rophic":13845,"Ġflooding":13846,"ĠPalestinian":13847,"Ġallegedly":13848,"Ġlegitim":13849,"Ġobserver":13850,"Ġdemolished":13851,"ifferent":13852,"Ġhectares":13853,"'d":13854,"eus":13855,"founded":13856,"Ïħ":13857,"Ð»":13858,"Ġwelfare":13859,"Ġpaved":13860,"Ġbub":13861,"ico":13862,"Ġnaming":13863,"ĠAcha":13864,"Ġstabil":13865,"Ġconve":13866,"ayn":13867,"osity":13868,"ĠLl":13869,"Ġvend":13870,"Ġvictor":13871,"orton":13872,"artes":13873,"Ġhegem":13874,"ource":13875,"ĠKa":13876,"Ġnearest":13877,"ceded":13878,"tech":13879,"Ġcounted":13880,"Ġinvading":13881,"ĠReich":13882,"Ġextrem":13883,"Ġorganize":13884,"Ġeras":13885,"Äģá¹ĩ":13886,"Ġcolonization":13887,"Ġemployers":13888,"Ġmasses":13889,"Ġmanagers":13890,"ĠMacs":13891,"Ġobserve":13892,"amburg":13893,"Ġpreventing":13894,"Ġ1846":13895,"Ġbrill":13896,"Ġpathogens":13897,"Ã§a":13898,"Ġhyper":13899,"Ġcartridge":13900,"Ġtrophies":13901,"Ġinduction":13902,"Ġgeometry":13903,"Ġtubes":13904,"numbered":13905,"imetres":13906,"ĠUzbek":13907,"El":13908,"mil":13909,"Ġtables":13910,"atum":13911,"atisf":13912,"Ġanthe":13913,"lements":13914,"ĠTogether":13915,"ĠAch":13916,"ĠCall":13917,"ĠMars":13918,"ĠMasonic":13919,"ĠJane":13920,"ĠOber":13921,"ppel":13922,"Ġneoc":13923,"Ġscales":13924,"oyd":13925,"Ġpresidents":13926,"Ġsurge":13927,"Ġmedic":13928,"Ġcrest":13929,"epending":13930,"Ġpatient":13931,"ĠPlant":13932,"Ġbelieves":13933,"Ġportable":13934,"ĠManuel":13935,"Ġmonthly":13936,"Ġmaternal":13937,"Ġoccupying":13938,"continental":13939,"Ġvirgin":13940,"Ġ1847":13941,"Ġexhibited":13942,"ĠProtestantism":13943,"Ġescal":13944,"Ġdemanding":13945,"ĠManchus":13946,"ĠSoft":13947,"ĠGoogle":13948,"ĠLegend":13949,"ĠOkay":13950,"ĠDougl":13951,"Ġaftern":13952,"Ġhierarchy":13953,"Ġremarkable":13954,"ĠEnvironmental":13955,"London":13956,"city":13957,"fil":13958,"mers":13959,"rond":13960,"wald":13961,"ÊĬ":13962,"Ġsit":13963,"Ġcous":13964,"Ġbreath":13965,"icill":13966,"asid":13967,"lemy":13968,"ĠHomer":13969,"ĠRash":13970,"ĠFinal":13971,"ĠNature":13972,"ĠChronic":13973,"Ġperm":13974,"Ġtroub":13975,"ĠThank":13976,"week":13977,"Ġemission":13978,"ranes":13979,"Ġacute":13980,"Ġworker":13981,"there":13982,"ĠIsmail":13983,"ĠEmpress":13984,"Ġadds":13985,"Ġprofitable":13986,"Ġcrus":13987,"ukh":13988,"Ġprojected":13989,"Ġspacecraft":13990,"Ġstationed":13991,"Ġcorrespondence":13992,"iyah":13993,"Ġjointly":13994,"ĠBelgian":13995,"Ġpesticide":13996,"Ġvowel":13997,"Ġfacilitate":13998,"oconut":13999,"Ġdensely":14000,"Ġgenetics":14001,"ĠGalileo":14002,"Ġsemiconductor":14003,
[...]
